/**
  ******************************************************************************
  * @file    network_data_params.c
  * @author  AST Embedded Analytics Research Platform
  * @date    2026-03-15T18:06:40+0400
  * @brief   AI Tool Automatic Code Generator for Embedded NN computing
  ******************************************************************************
  * Copyright (c) 2026 STMicroelectronics.
  * All rights reserved.
  *
  * This software is licensed under terms that can be found in the LICENSE file
  * in the root directory of this software component.
  * If no LICENSE file comes with this software, it is provided AS-IS.
  ******************************************************************************
  */

#include "network_data_params.h"


/**  Activations Section  ****************************************************/
ai_handle g_network_activations_table[1 + 2] = {
  AI_HANDLE_PTR(AI_MAGIC_MARKER),
  AI_HANDLE_PTR(NULL),
  AI_HANDLE_PTR(AI_MAGIC_MARKER),
};




/**  Weights Section  ********************************************************/
AI_ALIGNED(32)
const ai_u64 s_network_weights_array_u64[3297] = {
  0x3ee024ed3f054cc9U, 0x3e8078febddfde35U, 0x3e8607293dbeb3dbU, 0x3e57d7d0bea36b4cU,
  0xbeae58c03f052bcdU, 0x3daaf2b83f1af4daU, 0x3e215d893f09c2a2U, 0xbe6e61753e591ce6U,
  0x3e01f3b93efd2ab8U, 0x3d233889be4485d1U, 0xbcb32172be987ee2U, 0x3f14f414be3e935cU,
  0xbe7f2833befebd65U, 0xbe00aa01bdf8b03aU, 0xbf077ea23d9519e1U, 0xbeb60fea3ef6823cU,
  0x3e0f54a43f03b659U, 0x3e074439be29ccaaU, 0x3ecfa4833d9dce9eU, 0xbe36fc663c86ca9cU,
  0xbe2d40fa3dc94460U, 0x3f035a633eb79a5fU, 0xbe31bbfe3ed120cfU, 0xbd386dc03ebd0460U,
  0xbe6f2fd43ebab4b2U, 0xbe7ff93bbf263020U, 0x3f018395be657c19U, 0x3d5e04f53dcaf004U,
  0x3b0ef73d3e948906U, 0xbebb2d1a3f05561fU, 0xbe9b51ae3d9e790dU, 0xbe8ebf133e71d118U,
  0xbe3c02f73d5c2719U, 0xbe0cc8ac3f1f4724U, 0xbec1f04ebed59290U, 0x3e95640b3edd843dU,
  0xbf054a0a3ec204c8U, 0xbe866355beea45d4U, 0x3e81b1c7bea7b420U, 0x3f0631303edbb366U,
  0xbefb8248bec08e18U, 0xbd246a463e37a971U, 0x3cf806e23f0cb2efU, 0xbf02f6a73e89c92fU,
  0xbda84059bf10e417U, 0x3e12a7043e83ea44U, 0x3ee4be643ee51486U, 0xbe986f4cbedc1f18U,
  0xbcc710a13f312b53U, 0xbf24fa0fbebcbf5dU, 0x3de97ef5be9eab9eU, 0xbecf1b64bd984714U,
  0xbec45d4dbd44a604U, 0xbe49e717bed01033U, 0xbe9e0779bee4260cU, 0x3eb9b90e3ef5986dU,
  0xbee77bd03e263919U, 0xbdce9a0fbea1dfb5U, 0xbefcf8a33bea3c56U, 0xbd751791be293d67U,
  0xbe18763c3d72ff14U, 0xbed1d9c6bb32e4f9U, 0xbeb8f4e9bee96c08U, 0xbe625a20be0f6eb0U,
  0xbdae74cf3f070e1aU, 0xbb79da1d3f09514aU, 0x3ec2efa9bedadd5eU, 0xbe2264afbe17b5c0U,
  0xbef8069abede0325U, 0x3d879a1d3e1d6fccU, 0xbee22aab3e5c93adU, 0xbebb3c2d3ec084b0U,
  0x3ec68e2a3e970e28U, 0x3e727c6c3e838110U, 0xbeb9f69c3f081af9U, 0xbe95d0de3bec251dU,
  0xbef406eebe593a99U, 0xbc436f893eea0372U, 0x3e91391c3ee54e42U, 0xbeae356a3e1fa21cU,
  0x3e76f9933f2244e7U, 0xbeff51ba3bbbefbfU, 0x3d151e093ed4e7a6U, 0x3e935a2cbe77fe03U,
  0xbec8ba26bc6db7d7U, 0x3e6de8dfbe4719d4U, 0x3d0c84783f02e93fU, 0xbe96fb96bebb0ad8U,
  0x3e8be1a8be706bd7U, 0xbef69c5c3efa32d5U, 0x3eccec573e9a13bcU, 0xbe82232a3daab9d7U,
  0x3edb91f83eec1d7bU, 0xbe30b2f23e2bcf27U, 0x3eb222f13e6c559dU, 0xbe999154be46052fU,
  0x3f1747833f0261c2U, 0xbe148aa5bdbf1376U, 0xbd9aef83bdca89c0U, 0x3e8b863b3e138041U,
  0xbe264340beff00a2U, 0x3f3196263ea2189cU, 0xbeb045d0bdf108c6U, 0xbeac5044be885881U,
  0x3e58aef6bdbd6212U, 0x3e2426c43eb9025cU, 0xbeacff85bf042060U, 0x3f5e13f6bd86134dU,
  0xbe5c157bbd69e0f7U, 0xbc6713a13eaf2e1dU, 0x3e97a1e1befb586bU, 0x3bfa2e4bbe66cba0U,
  0x3ea9a481bef3dfffU, 0x3de282773ef792beU, 0xbefb9e79bec7ddb1U, 0x3f2a4000beaa5f1fU,
  0x3edc5f0e3e99494bU, 0x3dc16fcf3e987accU, 0xbed5cd5bbdc3608aU, 0xbea729babeb63d01U,
  0xbedddc29bccbcc34U, 0xbdfa5812bdd10711U, 0xbf033a06beaae63cU, 0x3eab818cbe8fff0cU,
  0x3f0815223e0e9443U, 0xbee8fff0be25f7b4U, 0xbecfa481beb901caU, 0xbc80ed20be0120f5U,
  0xbee0569f3d83af86U, 0xbd0ab96b3e69d42eU, 0xbdf10b1f3e6b3962U, 0xbe1c0b283f16e37cU,
  0x3ebef3dbb9d56b92U, 0xbe34b665bc0781cdU, 0xbf18e52bbdf0a4dcU, 0xbf0e1f9c3dbf59beU,
  0x3f0e24f03f0177eaU, 0x3cac18473f16024fU, 0xbe22d6d3be63b45eU, 0xbf10a7103f057874U,
  0xbe77dddbbea1de27U, 0x3d5e2fb73e2b8454U, 0x3e0211b3bd3a4a91U, 0x3f25fabdbeeee0eeU,
  0xbda6bb773e5c19c0U, 0xbe12fc313e6dcfddU, 0xbf0ab5ffbf19ce44U, 0xbec940183f105b1aU,
  0xbe3f9943bed9e722U, 0xbeaba4093dbf128cU, 0xbe7b88f1bd27599fU, 0xbede0983bea7800aU,
  0x3f0b8123befef253U, 0x3eb333b73e897eceU, 0x3ed56b8fbe84e5afU, 0x3ebb11ea3f311401U,
  0x3ef7cba9bedbd8c2U, 0x3ec1a89d3ea6ada0U, 0x3f32b5d03f1161e0U, 0x3f154405be820d26U,
  0x3d58b196bd2c37cfU, 0x3e059cf23e16e415U, 0xbe06bff7bd003f4fU, 0xbdf8ea25be3a6e0aU,
  0xbbd4edbbbd161938U, 0x3e1b632c3e0a0b83U, 0xbd93b6103d98d7a6U, 0xbd9b50a13df219aeU,
  0xbcb2d5fcbca281bfU, 0xbdb0bc70bcab1430U, 0x3dab31dcbd09a7bcU, 0x3bf5b880be70b934U,
  0xbdc4ba033da532b5U, 0xbdbf92ad3dd9bb1fU, 0x3c12bd37bda81b93U, 0xbcd37f143d2af001U,
  0xbcd44d793e1a1feaU, 0x3cec3fe9be34b449U, 0x3d86e9cb3e37bb02U, 0x3e67add3be0b1726U,
  0x3d555f463d7c6304U, 0x3e6a7255be0f5af5U, 0x3de43e1f3ca94ec9U, 0xbd4ca2f63de759bcU,
  0xbd01989ebd1dde3bU, 0x3cda2c063d3f4a61U, 0xbde964e7bcf0d9dbU, 0xbe24c481be1ef2caU,
  0x3b7821d23cd9da6eU, 0xbe1723753e135f87U, 0xbe31429abc45ae31U, 0x3c3f8ed83e249205U,
  0x3e4a71dc3dc8a0e6U, 0x3b00a79ebe89b857U, 0xbd41af153e0c92cbU, 0xbdc31290be77daacU,
  0x3db0a95b3e4210aaU, 0xbe0d6559beb4fcb6U, 0x3de3e99ebd5d2a3eU, 0xbc9ea093bdb4d9a6U,
  0xbebf91dbbe948c43U, 0xbed387e6bc5b0987U, 0xbd605312bcf81354U, 0x3e50d3dfbf15bc0dU,
  0x3d30ac513eab6410U, 0xbdf71e15bd96f7bbU, 0xbc682bda3dd902b6U, 0xbe8fb08f3e1397d3U,
  0x3ce8d67cbded4f58U, 0xbdf5ea84be2684a6U, 0x3d85d6563dfd60dbU, 0x3e9a3129bf15e38cU,
  0x3e1f57ae3ec43286U, 0x3dd6dac4bda096fbU, 0x3e6e5198be65242eU, 0x3e2b68c53e6eb061U,
  0xbd6377c73e6f96d0U, 0xbc008cb8be853eadU, 0xbe5651b6bde352e9U, 0xbd261e08be6e3a6eU,
  0xbd281259bd35a0d2U, 0x3ccbc6ca3bfe2e2fU, 0xbe7ae0bbbdb3a65eU, 0xbdfeab243df5dfe4U,
  0x3d2fb7d13e01660bU, 0xbdc72f2dbd135c60U, 0x3ca5000abd9f978aU, 0x3d32f7d2bd4fdb4aU,
  0x3e006074ba1287ecU, 0xbd0d95fabd5eaabeU, 0x3dbdb42e3e2d0859U, 0xbd73a0c63d418e6cU,
  0xbe1d6222bce89e2aU, 0xbe06af59be0771b9U, 0x3e27e8ad3e021262U, 0x3e557d1fbe074c39U,
  0xbb2c35a33e71bc5cU, 0x3d74e685bdc27eb9U, 0xbdd941f7bd929f5aU, 0xbd7e9060bbf3cf75U,
  0xbd1fd2603d833ad4U, 0x3d284a87bdc4f7b5U, 0xba981d663d868ee6U, 0x3daa6fd4ba044e2dU,
  0x3e40e9453e6770efU, 0x3e7d88f53bcf2331U, 0x3dab32ab3d21d6eaU, 0x3df47d0d3d89833bU,
  0x3d440f183e157465U, 0xbdd86140bd634977U, 0xbe043910398d7e10U, 0x3cda8c1bbdb86701U,
  0xbc8a5e843df84e06U, 0xbdf31f5abda35dc6U, 0xbe353766be4e1069U, 0xbe47f5bf3e5ed493U,
  0xbc95b44d3d8ad8f5U, 0xbd904b01bd83ef43U, 0xbdeb24893dfb8d5eU, 0x3c3d17ee3a84350bU,
  0x3da521263c64daffU, 0x3e389cf23d271190U, 0xbcba25f53de8881aU, 0x3d6f53ff3d9eea57U,
  0xbd864ad1ba4af2d2U, 0xbd2543babd3a45d6U, 0x3e43c4a7bb79a423U, 0x3dc78f2ebd5508e3U,
  0x3c8cd1f4bc1eb228U, 0x3ddd23d5be0042e1U, 0xbcfdccaebd9f8983U, 0xbd9d779e3ba88861U,
  0xbc9162cb3e09c648U, 0x3dfac8d83d460c45U, 0x3d496af23e70fac2U, 0x3e2f8656bdb99245U,
  0x3dc7b6ec3d9ba8e6U, 0x3d3fba05bd5e9675U, 0x3dceaa253d8b23bdU, 0x3e3ddc833e10000cU,
  0x3d7dc65e3e3af845U, 0xbe3448e0ba40732eU, 0xbe1898c93c37d3acU, 0xbe330436be48c2e6U,
  0xbe4f4572bd72681fU, 0xbe42fcf8bd6619fdU, 0xbdb5a420be64d255U, 0xbe0117143e7e4a42U,
  0x3e1a5edfbc69bf6aU, 0xbcd43e47bdd6d5ffU, 0xbe0e2f293dcac38cU, 0x3dbdf2d5bd3f407cU,
  0x3d69b4903d5777f7U, 0x3c37b1d8be366264U, 0x3da77d5b3da053a0U, 0x3ded12f83d962a55U,
  0xbd47f321be14cf4aU, 0xbe559f6fbdd2b29bU, 0xbd296138bd1fe9d6U, 0x3dd961d2bd99627cU,
  0x3dd14daf3d783df1U, 0xbdaf96febe2e38dfU, 0xbe165d0dbd81fcc2U, 0xbd9422fcbd2e6c94U,
  0x3e304d9d3dc76430U, 0xbd9cb6ec3d34170aU, 0x3e27cf5ebcbd3392U, 0x3dcafbc7bc4d4362U,
  0xbd4f3afc3dc2231fU, 0x3e8d23e3bdd5ceb5U, 0x3d7a6cd7bc959176U, 0x3ce8fdf5bd67bdf4U,
  0xbe0be8123d1e0b70U, 0xbb64ca08bd8395adU, 0xbc66c7a8bde1c662U, 0xbd94963bbe1f3cd8U,
  0x3d40a9833d83db62U, 0xbddd46c2bc954907U, 0xbe3a7510be58750cU, 0xbdbb69da3cbff65aU,
  0xbdd9dbc63ceea761U, 0x3ddfff043ddf5673U, 0xbd73dbdfbdfc001eU, 0xbd3bcc673cdc13eeU,
  0xbd2d8bd9bbeb8efdU, 0xbd5eefce3d9bb133U, 0x3d1651f03dee7261U, 0x3dc7fded3d8fabafU,
  0xbdba7218bb41b965U, 0x3dcbc306bc9bbb92U, 0x3db30f75be0a8902U, 0x3d70b46bbe1c66b7U,
  0x3d3237983da90c1dU, 0xbd24d4f93d524268U, 0xbdf029353d7ccd0fU, 0x3d2d94cabb45225bU,
  0x3dc7012a3e14a930U, 0x3dc66109be0fa3a7U, 0xbae986e23a6ed9deU, 0x3b046026be09011fU,
  0x3cd79aa43dbb8f85U, 0x3d6183d0bda34922U, 0x3e0c08bf3ba90b32U, 0xbb39fd45bdce6d8fU,
  0xbd97d7babe2a92d7U, 0x3dea51a4bc27de85U, 0x3dabe4c73d1eb082U, 0x3dabc20f3b71dcaaU,
  0x3db88a593de4e9beU, 0x3de5af5cbd5954cfU, 0xbd9b98833d095556U, 0xbdfe5272bd2fa405U,
  0xbe06da13bb82e6c0U, 0xbb81ec953c740a65U, 0x3d01bf64be0c64f3U, 0x3c835e833d5bc07aU,
  0xbdffd48f3cdd006bU, 0x3b00195c3d74560cU, 0xbe2068e1bc2373d0U, 0xbda100c1bda362d3U,
  0x3dfd0d2bbd046db6U, 0x3dc08f493c2e8f69U, 0xbd254e23bda3b273U, 0xbe69b11f3e125c67U,
  0xbd852ba0be997637U, 0xbe15ae6c3d8e59b7U, 0x3d56acf0be105680U, 0x3e2a2a923d15aea8U,
  0xbcf654d6bdfb22d2U, 0x3d7f30453d73f79cU, 0xbd68747dbcabe150U, 0xbb841eca3d94874dU,
  0xbe0b539bbe61aa27U, 0xbe55e6323d947b30U, 0x3b82454bbdb6411cU, 0xbc118660bd83520fU,
  0x3cef28b3be354f46U, 0xbd90e8693de0bd80U, 0x3dd06bcbbd80bb55U, 0x3e2e067fbd47814bU,
  0xbbc784aabdec32afU, 0xbdaf0d12bd5de7ceU, 0x3de11fcebd91ace2U, 0xbd8b7baebcda129aU,
  0x3e318c10bd1e3bedU, 0x3dbd04e13ce89c55U, 0xbd5289fcbd798c2eU, 0xbca0c995be20e9c3U,
  0x3c666053bd4d17e8U, 0x3dd508603c81276fU, 0x3d4e83be3c655c3bU, 0x3db501733d1f4905U,
  0xbe964319be18afd8U, 0x3c8a7a55bb79ca7dU, 0x3e52a657bd7ba412U, 0x3e5a530cbe93b400U,
  0xbdaafcc73e5f1c73U, 0xbe05f0473d2e4bc9U, 0xbd5eb233bd9aae1cU, 0xbcb156abbd13c998U,
  0x3d14a8c5bcc7fdbfU, 0x3db34617be29b48fU, 0x3c2675513e06c5c2U, 0x3e621933be048209U,
  0xbd0dec3e3e89885dU, 0x3e00be9bbdc4ea33U, 0x3e2ddbf53d205c08U, 0x3d80f67e3e417027U,
  0x3bbb2f543e56cd6eU, 0x3c149005bd9b0e65U, 0xbc263a923e21fdf6U, 0xbe010380be4932e7U,
  0xbdd3e99d3c971a94U, 0xbe1251d13dbe3905U, 0xbe505411bde3d66eU, 0xbe0ced9b3e432b78U,
  0xbde1e145be20f2dcU, 0xbb1459f7be1ab6b8U, 0xba61ed11be124fe3U, 0xbdbfddb13dd7c391U,
  0xbdedc589bd35ec62U, 0xbe8791d1be0b7d2aU, 0xbd97de5bbdeaafd0U, 0xbd9706f93bb012cbU,
  0x3e53d1fb3de855f4U, 0x3dd4bcedbcf1f8b2U, 0xbd9dc498bdfeafc4U, 0xbd74edea3e1425b3U,
  0x3dad49a2be2e3863U, 0x3e08c9773dcd478eU, 0xbde7a113bca3ed9cU, 0x3c81c01e3d94535dU,
  0x3e4cbc59bdc81d06U, 0xbc4793f53df9a02bU, 0xbe7de8f9bdd8bcd2U, 0xbb9c42503d70c76aU,
  0xbdf91670bdfa905dU, 0xbe4895b8bd52a37aU, 0xbda654c83e1ab8b8U, 0xbdadce0ebcc0b04cU,
  0x3df49dbfbd880177U, 0x3db2aec63d92bef3U, 0x3e3bdd493d703700U, 0x3d47784d3e439649U,
  0x3d59e644bdd62ad5U, 0xbd097afebc907ef7U, 0x3d4a93b13d2cf1c4U, 0x3dd96a6d3d357331U,
  0xbd4ae2abbd828f9dU, 0xbd84c4a6bd4ef791U, 0x3d957cc33dc6a077U, 0xbc92a2713e1dd8a7U,
  0x3d2cdf803b8ef2c8U, 0xbd5ca439be07fe19U, 0xbda075f1bc722a0eU, 0x3dcae221bdc32408U,
  0x3dcd74fb3e07bfb2U, 0xbb3160243dd547dcU, 0x3cbb206fbd1a1de7U, 0xbdaf14273d693b26U,
  0x3d802044be23ec84U, 0xbbdde8fbbda020e0U, 0xbd4d43393dcd9590U, 0x3deeb725bd38c98cU,
  0x3d3f6838bd58068cU, 0xbd8dfd423dde8e49U, 0xbddc21a7be07a7afU, 0xbdfa73bfbae8cecfU,
  0x3cdbfcecbe0d02baU, 0xbd9c80203c8ac87dU, 0xbda9906bbd865d88U, 0xbd22a48fbddac80eU,
  0x3d27b291be433c6dU, 0xbdad3808bdbfd8d0U, 0x3d915c3abde7dbbaU, 0xbc4fad29bd1a9e46U,
  0x3dadb0193de0f033U, 0xbde083473d8507c4U, 0xbc8007fbbd826a26U, 0x3d2df2ca3da09bc2U,
  0xbd9ad0cdbe46952dU, 0xbe48be5bbe39a450U, 0x3e11af6bbdfa6ba5U, 0x3bbaacd23e4d37bfU,
  0xbda94045bddc95b1U, 0xbe47a2043ca9e143U, 0xbe0c49ccbd916b83U, 0xbd7b6a1abd1156f3U,
  0x3e828f9fbcb9ec08U, 0x3e4405143db963b6U, 0xbea3bb083dc7c58fU, 0xbdc648423ea4311fU,
  0xbc7e6157bee799a4U, 0x3de57aebbd9527a1U, 0x3cbabc713d25ca04U, 0x3e60155dbd616b60U,
  0xbd413fadbe148e98U, 0xbd89f6213e63b0d5U, 0xbdfbc4cbbe5b954bU, 0xbeb7eac63e235fd9U,
  0xbe6569a2be567e82U, 0xbe242b16bd0bb49cU, 0xbe8430dcbd87fba5U, 0xbe3622bfbe82d68cU,
  0x3d458975be79a033U, 0xbd0bca6f3e438fcbU, 0x3e404524be28cc9aU, 0x3e21ae4e3e04e852U,
  0x3e1841c7be097f38U, 0x3de9c288bc86a847U, 0x3d9421a33d462d74U, 0x3dbf765abe6b4766U,
  0x3b3ca9ba3d30d359U, 0xbdc62f393c0b283eU, 0xbd818c97bc174e9eU, 0xbd0bb0423db6d049U,
  0xbdfcc4cabd78371fU, 0x3d7de360bd7a88cdU, 0xbcbce2d03d2b6964U, 0x3c01d384bc333de3U,
  0x3e08995ebdf58656U, 0x3d69af6fbd48878fU, 0xbd9d59e2bd07920bU, 0x3c81e06d3d75d31fU,
  0xbc949ce9bafedee7U, 0xba973d2c3df0cde9U, 0xbd656db6bdac6576U, 0x3ce891143e1cbe24U,
  0x3bb64dd0bd304157U, 0xbda84b09bc80d1c8U, 0x3daafedabda67d8aU, 0x3dca59b23e0b8c08U,
  0x3ce0c539bdf32160U, 0x3d2ac107bda7c30aU, 0x3da0249c3e09e9ffU, 0x3dec0d1d3d80bb4eU,
  0x3ccff511bd01adc0U, 0x3d7c3309bcc90cdbU, 0x3c962c9ebc69adf5U, 0xbc9eb1ffbe099ffbU,
  0xbcfb9995bcf7da1dU, 0xbde0a427bdcdd2cbU, 0x3d96a662bd1ce798U, 0x3dbc60523e019bf5U,
  0xbe427e8cbd519a68U, 0x3db32c683d37a6ddU, 0xbc73c494bdcb9abbU, 0xbda60d8f3e0ba407U,
  0x3e13b227bd92787fU, 0x3d0b584d3d07bde8U, 0x3d508439bebfdd54U, 0x3d890a9cbd5d7c5eU,
  0x3dd1cb10bc1fdf17U, 0x3d993f0abc0cf948U, 0x3d5e9d16bdbb800dU, 0xbe802dcd3ccceb71U,
  0x3dbdc0ccbe1134ccU, 0xbce74acdbe154eceU, 0x3b8d123fbe37eee5U, 0x3d94dd113d091ed8U,
  0xbd54229bbd1e7571U, 0xbe247b80bd647676U, 0xbe36aed13d4bc9d5U, 0x3d3683bc3d793278U,
  0x3ae95f0cbd131848U, 0x3cc5fb63be6281caU, 0xbe21f030bbe6f52cU, 0xbdba53483d80a4ccU,
  0x3e1861c0bded8f6dU, 0xbe0b67a3be0e855cU, 0xbd13c425bbe13578U, 0xbcd7b4303d8af408U,
  0xbda75078bc585ad3U, 0xbe361b2fbcefa8cdU, 0x3cfcce0b3db25112U, 0x3dc19ac1be0de234U,
  0x3d1439fb3ce16777U, 0x3c0f821ebdc58d77U, 0x3dbcbdf43de432a5U, 0x3dec5aa6bdadfdbeU,
  0x3d553834393e6c8aU, 0x3d91b9753d3d2e3eU, 0x3df151f0bdb9add7U, 0x3c816198bdca2343U,
  0xbca0e2fbbdd57510U, 0xbc333267bcaecab6U, 0x3a1ff262bc943175U, 0x3d6f3a503dfb94c2U,
  0x3d8705663d85842fU, 0xbbd05ced3dcd31bfU, 0x3cf87e2f3c335d7eU, 0xbdb582babdc771d6U,
  0xbcec35d93b5eb38eU, 0xbcd682aa39daa4f4U, 0x3db71b0a3cd8018eU, 0x3db4552abd07e3a1U,
  0xbdd64efe3db341c6U, 0xbde01ec3bdbf9506U, 0xbd6e5965bd733bd9U, 0xbc093220bcb7b56aU,
  0xbd619520bda18816U, 0x3e05a13cbd2e5c82U, 0xbda9c1a5bd874aceU, 0xbc0b68ad3d0ab53cU,
  0x3dabeeaf3dcb8b90U, 0xbdae4ce33dd6ae74U, 0x3de05c6a3d764ee3U, 0x3e011f5abd60a675U,
  0xbcbc27ec3e0cf53bU, 0x3aa871ed3dd22652U, 0xbb80920dbd94f7ddU, 0xbded8219bd619d21U,
  0xbda850973dd80d00U, 0x3e63c7b73e2f1a3aU, 0xbdc4a56a3c7df1f2U, 0x3b578c103db59973U,
  0xbd88b3793d16f24dU, 0xbe0268a53dd81d67U, 0x3dc12ef0bd8038b2U, 0x3e214687be01fa4aU,
  0xbd4a43b13c374749U, 0xbda72f0cbca18300U, 0xbc8cc8fc3d8698f8U, 0xbde11ed2be07e2f7U,
  0xbdb96f9dbcb495a1U, 0xbe18e6f0bd9072c6U, 0x3c8832b83c3791d5U, 0x3e409656bdfcef49U,
  0x3e044bbc3d5d4bb4U, 0xbd35a6d339acfabdU, 0x3e2782b7bd1b4effU, 0xbdc889e9bc80b3a7U,
  0x3dd201113e47c1a9U, 0x3c738d05be013dd7U, 0xbe52d9f3bcefced0U, 0xbce4f848bbc08bcaU,
  0xbd1a3f90bd8f17e7U, 0x3cf3228dbd96e653U, 0xbc361a723db1e0f3U, 0xbd0a8ab13d6d9bf0U,
  0xbd1e36f9bdc59ac5U, 0xbd97f6c4bd2e8ca9U, 0x3db89a09bdda29fdU, 0xbe1a17913ddf8167U,
  0x3d76810f3cc29dd3U, 0x3cd0a2703dd325a5U, 0xbd1a06703dc35267U, 0x3daebe853dde46edU,
  0xbd9f939dbda6686cU, 0x3e2b58b6bc2377cdU, 0x3c2efeecbdad4970U, 0xbc1bad613d5c7679U,
  0x3df48022bddd3d2eU, 0xbdd22db43d8eefa3U, 0xbcbaabb2bcfddbe8U, 0x3e0e34593d286308U,
  0x3cea1f713d1b9a51U, 0xbdb4f0c43dc3bdd0U, 0xbcdb19f2bd7eff2fU, 0xbcb2eef4bda001a8U,
  0xbc65b9d3be0572bbU, 0xbc4c471abaaa82abU, 0xbe0f27f7bd3fb43cU, 0x3df57aac3cc69a59U,
  0x3d670b76be2d144fU, 0x3bdd9323bdc62196U, 0x3dcc1c913dff2948U, 0x3de1bdffbd87e2adU,
  0x3a6b5f5e3dc813d9U, 0xbd5ce0ac3e02d2c0U, 0xbd62d416bce3a504U, 0x3d43c0c13c93e0b5U,
  0xbd101203bb3b6dc0U, 0x3d01f28dbdc1e601U, 0xbcb44ec5bded145bU, 0xbd4ef41e3bf56ae6U,
  0x3b862aac3d146356U, 0xbd72c5f53ca93b7fU, 0x3dbf3edb3add2b62U, 0xbcfb8c883b63d819U,
  0x3d001c77bde2dd27U, 0x3abff515bdd7bb61U, 0xbdf0b21f3d5eef80U, 0xbdc775fabdbb0faeU,
  0x3e03b86e3de990d1U, 0x3dd9b68a3c7e45dcU, 0xbdf5250bbd2d24b6U, 0x3d638f5c3d7ab56dU,
  0x3d22a1ec3dd8d28bU, 0x3da8d7023dba2fadU, 0xbde8ba123d93f6b4U, 0xbdf52ddc3dd98dabU,
  0xbba304b03dc89f9bU, 0x3d4d6534bdde581bU, 0xbdf8eacebc94b63aU, 0x3d3d950dbd80fb04U,
  0xbd8cdb573d98fc9fU, 0x3cd9ee613d809bb0U, 0x3cb37b8ebd11e2ccU, 0xbd984006bdd7ab2fU,
  0xbde83104bd3cce87U, 0x3c815928bd8edea6U, 0xbd49c7e2bda52919U, 0xbb87b9313bf983d0U,
  0xba88d3c8bd770112U, 0x3d312ec33c1b965fU, 0xbd4fb3a73b9f14fdU, 0x3c222cc3bdac0d72U,
  0x3a70a822bd940892U, 0x3de097a53d879973U, 0x3de0af0cbd134290U, 0xbda043d53b303a45U,
  0xbde26b003d88e89aU, 0x3bee42dabd44e552U, 0xbd11818dbcc8aedeU, 0x3dce4ae13de5052cU,
  0x3ddb48dc3d307a0aU, 0x3d3ac384be03cab1U, 0x3daec71b3daef3adU, 0xbb22226cbdcad62eU,
  0xbd5f3dc8bd74a34aU, 0xbdc70e31bc810495U, 0xbd700247bdafda34U, 0x3db72c323d1d94a4U,
  0xbd2cb41fbd91f35aU, 0xbdc4ec043c1b4dccU, 0x3e06ffae3d8469e2U, 0xbde64f273d5c4e99U,
  0x3d3a98be3d91924dU, 0xbdc54ce83df71cc8U, 0x3d267c3fbd83981bU, 0xbdd05b653b2f0fd6U,
  0xbdc02024bcd36c80U, 0xbd4d06ec3dda95fbU, 0x3dacec2f3d8320dbU, 0xbb17bae8bcfe2fd5U,
  0x3dfd2fbfbd07aec5U, 0x3cd8efe1be42151cU, 0x3dba5181bd4e81b2U, 0xbcf05e2a3ca87903U,
  0x3d2f462ebd25114cU, 0xbe065486be14d181U, 0x3ca00f40bc383c00U, 0x3def7c583ca2cbe1U,
  0x3e043772bd7205b1U, 0xbcb0f47fbdb74be5U, 0xbdd717b5bcf77e84U, 0xbdefb804bd8848a7U,
  0x3dd78ff5bddc2231U, 0x3e0900c23db7d3f5U, 0x3ba22e563de66fb1U, 0xbd6248bf3d9270c8U,
  0xbd6f79603c253836U, 0x3d2c674b3d8c9303U, 0x3dc0ff923d8c70bfU, 0x3dc0a7bdbd3cdd3bU,
  0x3d824f123d389f08U, 0x3da7a1633d0d77b9U, 0x3d2771813e01733fU, 0x3cfe59a03d97ab73U,
  0xbd4a37323d69b7e1U, 0x3e0d5ff13dbb5405U, 0xbd07ef933d69f565U, 0x3d410904bd9594b8U,
  0xbcc12cfe3db1261cU, 0x3db76d2a3d94a60dU, 0xbb1439ccbddd3b62U, 0xbd60cd17ba1df8a7U,
  0xbe0cae9f3c397dfeU, 0xbd8267fabd9cef46U, 0x3e02fb0abd5616f7U, 0x3dc077f13da59325U,
  0x3ce4b5b53ca20a11U, 0xbd8ee6483d25a906U, 0xbe2b968bbe5e2791U, 0xbd08412cbd88593eU,
  0x3d8797133da4c00dU, 0x3d1c0cbf3e076c05U, 0xbe27a1b4bd461c24U, 0xbe0c37c63d12f301U,
  0x3d402533bd7219ecU, 0xbd30b8e73df148d7U, 0xbcfb8770bc38eae8U, 0x3d9569e2bd1f25f2U,
  0x3c8e2b5dbc9e855eU, 0x3b9214ae3cd407fcU, 0xbe41f228be7025b9U, 0xbda24d4f3cf68d71U,
  0x3c1a1ec7bdf3353fU, 0xbe1348f33cab6565U, 0xbd812e15bdcfd8c3U, 0xbda1a941be196d0eU,
  0x3e25afb4bd10e5ebU, 0x3cda250b3cadb82bU, 0x3e0675abbd44e0ceU, 0x3e2418d83d6dce0dU,
  0xbd5da7e1bc607bbfU, 0xbd7a85fb3d135f8aU, 0x3a0d91b63dc2f243U, 0x3e0c3bb9be47fd98U,
  0x3e3fcbdcbd1aa567U, 0x3d7a9a48bdf1790dU, 0x3dd581543d4ea3c7U, 0x3d5d21cbbe9d12cfU,
  0x3da9cd543dc3c104U, 0x3e7d4b8e3c50478fU, 0x3c66a6063d6dc480U, 0xbd15622e3e02eaafU,
  0xbea539c5bdeee8c2U, 0xbd7841693d918977U, 0x3dd9ab12bdac6fbdU, 0x3eacf86dbe8f30d2U,
  0xbbb00c5d3ee9f720U, 0xbdf6013e3d4d4e12U, 0x3cc731823d967539U, 0xbeaaf4063e088945U,
  0x3cdbfce4bc976b29U, 0xbd947ddcbe1fd8eeU, 0x3de6e67a3ddf64bfU, 0x3eaac9debe4436b5U,
  0x3e344f903e9aef22U, 0x3e8f534abdd707feU, 0x3e1fdbe4bca9e461U, 0x3d93d3d93ea50d1fU,
  0xbe4779673e8c7f97U, 0xbe1e8b8abd8295e7U, 0xbe8d370d3e174973U, 0xbe487913bd3ec114U,
  0xbe7ff29b3e125eb9U, 0xbe00ffa43dc9a7b3U, 0xbe827280be4a8b18U, 0xbe4f41e63e96b799U,
  0x3dca6f29bd11b1fcU, 0x3e24160dbda80ec4U, 0xbd8d8eca3db4e727U, 0x3cb4c0ffbe3fa90fU,
  0x3dc6376c3c0884e8U, 0x3e2b3b143cf1d81bU, 0xbd7bcfa63dbd9839U, 0xbd2321123df07868U,
  0xbe104c36bddc05ecU, 0x3c2cffa93d844570U, 0x3e266389bc1e23fdU, 0x3e3327f5bec3ea1aU,
  0x3c8ab8dc3daf8736U, 0xbda8850bbe1088d3U, 0x3d9173833d7abf45U, 0xbe494566bd839b9fU,
  0xbbbaf98e3d323eb0U, 0xbd5acb04bd9d7361U, 0x3e18303f3da366e0U, 0x3db4efd83c37a731U,
  0x3e351ec23e6eb190U, 0x3e3fa7a03d12d31aU, 0x3e5b2f89bd0663ecU, 0x3e795f753e4c044cU,
  0xbc5e56263e0110fdU, 0xbe2ef0633cb1f601U, 0xbe0654993d4fe5f6U, 0xbe11b7a7bd4cf852U,
  0xbcc87946bbd10879U, 0xbe3f5655bd9978bfU, 0xbdace941be85c4cdU, 0xbe639b483e8ded53U,
  0xbc2fe3da3dadd7b5U, 0x3e35fc4fbccebe4fU, 0xbd42b58a3ddceab9U, 0x3d7375c5be1c1fa6U,
  0xbcd711083dcf3ddcU, 0x3e4b022abce3f100U, 0x3e02e1b83d68938eU, 0x3dcf5d403b4022e1U,
  0xbd44fec53d9da29bU, 0x3e14d635bbe0467eU, 0x3e19a4f63c6217b1U, 0x3e8dd420bd82644bU,
  0x3ddd0c883e3cf4f6U, 0x3bc38c4e3c9404a5U, 0xbdc8c18b3de015faU, 0xbd4f0ef23de22bf1U,
  0xbde9e014bd4365b7U, 0x3caa6088be290569U, 0x3d4c33263d3ac25fU, 0x3e92a965bd3aa44bU,
  0x3e1822ff3e91a5a0U, 0x3d28b7933cb608c4U, 0x3e1b0f0abd742c94U, 0x3dd5eb013e8727c7U,
  0xbe0135783e2c7d13U, 0xbe2d454bbd93a023U, 0xbe2670bc3e40b9edU, 0xbd9ebe65be35d519U,
  0xbe047fa83d960e3eU, 0x3bd4c55e3dac49d5U, 0xbe7a9926be8ae2a6U, 0xbe8a04533dd6f994U,
  0xbcdfe76bbe0ebe07U, 0xbdef8ca4bd5cd72eU, 0xbdd8cd6dbd859cb7U, 0xbdd995f63e4fee51U,
  0xbdbf6af9bde3a733U, 0xbe682a3c3d1b85dbU, 0xbdfbd943bea048fbU, 0xbd4c8eb4bdeee41aU,
  0x3bf1b99b3e15862bU, 0xbce50cd83cb4a6b1U, 0xbcab700cbdd7ffd7U, 0xbddf47973e8a18c0U,
  0xbdb3c169be83e7ddU, 0x3d8fb905bdc42fb5U, 0x3d2a1375be1d6264U, 0x3e0860b6bd0a167dU,
  0x3d1b4a883d175c52U, 0xbe44352e3d7322dcU, 0xbd1dcf2bbe86e181U, 0xbe6e7c6f3da5c24eU,
  0xbe3b4186be76a41fU, 0xbe9e56763d943901U, 0xbdec6da2bd77dad4U, 0xbe6b1563bd718115U,
  0x3e2e158abe592631U, 0xbceeb7043d8c8eddU, 0x3d9f4da0be76e26aU, 0x3e4227843e328517U,
  0xbd64a7033d0b7f9bU, 0xbd7dc7e93d3a9fc3U, 0x3e861f5c3e6d6852U, 0x3e36bf77be453ff0U,
  0xbdc609cfbcef490bU, 0x3e1b0b5fbd8e158eU, 0xbe23ea003dd43873U, 0x3da162e0bd10af1bU,
  0x3e10e98cbd6c9769U, 0x3db6cd603cd3cc51U, 0x3dbd91683e531d38U, 0x3d9054493df58e9cU,
  0xbd199c163dabac60U, 0xbd895bf7bd5d4c2eU, 0x3e0de3dbbe202cb5U, 0x3da6bcecbddbaff5U,
  0xbde55e283d6745b0U, 0xbbf9e7583d0fd0e6U, 0xbdc941e33c78038eU, 0xbdf0fbb7bd32871aU,
  0xbddd21be3e17af42U, 0x3d85729d3ac4232eU, 0x3b66b2d7bdb9c3adU, 0x3ca053ccbd926782U,
  0x3db12e723e081a29U, 0x3da3edd33d1b8761U, 0xbcf4c2e93cf3a2efU, 0x3cfc629b3b6a7082U,
  0x3d9871c43e10ebe4U, 0xbd59838bbe446908U, 0xbdbe1d50bdc56287U, 0xbd08faedbdcabdfcU,
  0xbe4001fe3d53376cU, 0xbd1a9a51bd857ab5U, 0xbdf60e34bc2557e1U, 0xbe31a2ba3e6b548bU,
  0xbd4ae1a8bd927e07U, 0xbd76aad4be00692eU, 0x3c838f823d976013U, 0xbd3159fe3ca48993U,
  0x3db4070e3dd1e93eU, 0xbe2a0f93be8e9197U, 0x3dc58eb0bdac35b2U, 0xbd12e464be65bec8U,
  0xbe322af1bc1c6900U, 0xbe0f48553dbf4e65U, 0xbe050ebf3e0bf9e5U, 0x3d98a48b3c46e922U,
  0x3db1a9983d4c6598U, 0xbdb03491bdda5d47U, 0xbd5e0cc63e1194aeU, 0xbce3e513bd8a17e1U,
  0xbcc34112bdd6328eU, 0x3d35a43bbd8733b8U, 0x3d743d15bdaf699fU, 0x3d303aad3c7d3a9cU,
  0x3d07848a3d5d00bbU, 0x3c6a24a7bc8e14d2U, 0xbd8b631dbe14c041U, 0x3e123519bd427006U,
  0xbca24c063d1d8534U, 0xbc01715e3dc880bbU, 0xbdaa3c97bdcff4d3U, 0x3d260559be0c80cdU,
  0xbc8be42fbde69eebU, 0x3dd661573cbeae96U, 0x3c525bc73b2f8806U, 0x3d62dadd3de67223U,
  0x3e42e4403e07962dU, 0x3d4e6b32be243c44U, 0x3cc8b39f3d23568dU, 0x3ca88c19be878f68U,
  0xbca75ab63e3690d5U, 0x3d720c11be72e6caU, 0x3e49243c3e7db31aU, 0x3cf55f6dbdbb77acU,
  0xbededc1abe37f636U, 0xbe5a81fb3b00b5efU, 0x3d4c4f85bcf18d74U, 0x3ebcd879becd89ecU,
  0xbc972c713ec6a6b5U, 0xbdd092b93c1f3d1fU, 0xbe1c0441bd76e4a4U, 0xbebf455a3ce03c24U,
  0xbc81376a3dce5395U, 0xbaf5367cbe32b8e8U, 0x3dedbc013e6807edU, 0x3e38aec9be8bcbaaU,
  0x3e4193ef3e9ce06cU, 0x3ed01ce2be1c68cfU, 0x3e6bc1f3bc576ddaU, 0x3e94311a3e9185aaU,
  0xbe296b3f3e323d6bU, 0xbe531a0abe212a6fU, 0xbeb070db3d2d4f60U, 0xbbb95125be0be098U,
  0xbe9440173d813533U, 0xbe177e49bd6145ebU, 0xbe7a1e8bbe3f2c5fU, 0xbe07cb743ec1c798U,
  0xbcabb8023bc07d50U, 0xbc96597cbd93c52dU, 0xbd904bb4bbcfcca8U, 0x3d2e84563c99a45bU,
  0x3cee58b2bca7ba39U, 0xbe7e07d2bdbdd63bU, 0xbd2e04a9bd7a6661U, 0xbd108cd6bd089a2dU,
  0x3de03c803dc3bee6U, 0x3c713eed3d9dd075U, 0xbdf423d93dd37430U, 0xbd4876d73dfb2da4U,
  0x3de578cbbe93cd47U, 0x3dba42d93d593a7aU, 0x3d4b5b713dab9d5aU, 0x3e2d3ac23d372ef6U,
  0x3e03ec7ebe21db0aU, 0xbc7c0b5b3d7c6489U, 0x3cf1e465bd7f803eU, 0xbe5012763c9eb8abU,
  0xbe37c173bd4d9ab0U, 0xbe3a49bc3db40a91U, 0xbaf183dd3d8ba032U, 0xbdea4f29be250b67U,
  0x3d320789bca2d83dU, 0xbd48a66c3dbc0724U, 0x3dca9e503dabdba1U, 0xbc4a40cd3d374814U,
  0x3e0d7cffbbf0a0a9U, 0x3e233253bd4213c5U, 0x3daa4ff43dcde3b0U, 0x3db78736bd3a926eU,
  0xbce8f957bc7b153aU, 0x3cfc06d53e2151a5U, 0x3d9195143dce8228U, 0x3c20bcef3dbb49cdU,
  0x3cf5fc743d2b619cU, 0x3ddc91823e5439baU, 0xbdaeafd4bd1ef896U, 0xbe1eb0f93e08da8eU,
  0x3e06693a3e3e150bU, 0x3d8f2bd23de8c0d8U, 0x3d578620bddbfbb8U, 0xbd3289023e1a2f74U,
  0xbe2a2734bd61ebe5U, 0xbd2268853bb6648dU, 0xbda591453d99f033U, 0x3dffd37d3bb57bf9U,
  0x3dcc99513dce3b9bU, 0xbe2ab8893ce7b289U, 0xbdaa1189bcd66986U, 0xbe5a67a93d493c87U,
  0xbda26759bdd4ba69U, 0xb9e259ed3e04f865U, 0x3cfec2e23d6edc8eU, 0xbe2d8bd2bdeaaa6bU,
  0x3d22c0b8bdb86829U, 0x3d670e9c3df1bb8eU, 0x3d1a8ba63d7bfe3aU, 0x3c9789fb3af0e218U,
  0x3ddb15593d381209U, 0xbcde0dce3d6f7ae8U, 0x3d097c983c82c5fcU, 0xbc165275bd1243d5U,
  0x3d60b72f3d10a690U, 0x3d5ebc8cbda1089dU, 0x3c727c19bd879d61U, 0xbdc09060bca766e6U,
  0x3c8971acbba8bd83U, 0x3d370938bdc42899U, 0xbdb33ddfbde14292U, 0xbc846fa0bdbf996fU,
  0x3c18e4d7bcfe35acU, 0xbda163a93cb5822eU, 0xbc8de3b73d2b2a81U, 0x3dc87b563d8fc7bfU,
  0xbd10a0823d66ad05U, 0xbbf5af75bdb9d436U, 0x3d69f414bd620301U, 0x3e0421b03ce6e3d2U,
  0x3c9793a23cdf9dd7U, 0x3d6787a73cce419eU, 0x3df3f7f4bb3f2342U, 0x3d1c6313bd8ca480U,
  0xbe0e0b95bdda6495U, 0x3d156973bc961530U, 0x3c1be1f83dfd3430U, 0x3c95179abd143be9U,
  0xbd1d7e5fbda9b406U, 0x3dfef8193c543fdbU, 0xbd9f66253dc7a1a9U, 0xbd9be3dabcb332d3U,
  0xbda011143c85341fU, 0xbd96fa703c3f1dc7U, 0x3ddd80cc3dc5f5d3U, 0xbdc19381bdb8c1bdU,
  0xbc6b1e6f3d4750b8U, 0xbd2e81fe3da29cccU, 0xbdf06a113dc08fbaU, 0xbdaed555bddce743U,
  0x3c9188a73ddea879U, 0x3c26415ebdbbcb7eU, 0xbe1300a03d98524aU, 0x3ce2f48c3d0e7be8U,
  0xbde2d514bd126d50U, 0xbe4702f23d7eb183U, 0x3d541406bdba5f79U, 0x3d3516de3c5f9843U,
  0xbdc1017f3e185259U, 0xbe1269edbcab7e3eU, 0x3df513ec3e0163b7U, 0x3d154790bcd2df5dU,
  0xbc238a463e08346fU, 0xbe110b593d2ebbedU, 0xbda76010bdb5badaU, 0xbd3cac6bbca2ac39U,
  0x3c924a48bcaf0cabU, 0x3dc69ea9bde75939U, 0xbc998471bd45abf8U, 0xbd5bdeba3e12c2dfU,
  0x3de259843d1f3748U, 0xbced20cd3d8ee2f8U, 0xbdc57960bdedc118U, 0x3ce77e30bb4fc172U,
  0xbd9721c33c7b139aU, 0xbdedc5a4bdb9af16U, 0xbca8d839bd59bac8U, 0xbe10e5c63ade0896U,
  0xbe242f62bce52d33U, 0xbe28de5dbdb2f40cU, 0x3dffc120bd7986feU, 0xbd1ab3fb3e239b2bU,
  0x3d0d4309bcb70040U, 0xbe6bc9603d1797faU, 0xbe589068be152642U, 0xbe303cf4bd0c8843U,
  0x3d5ff9a23d925495U, 0x3e31283d3e0eaa6bU, 0xbdf8011e3d7a32c3U, 0xbde8d1fa3e76f06dU,
  0xbd92dd79be93ee46U, 0xbc990b093b4b1963U, 0x3d9b7a48bde36dd2U, 0x3d06ccf13d37f221U,
  0x3cd3b7843c2c41abU, 0xbd042e6e3ccd5195U, 0xbe00a223be180d2eU, 0xbe6b993c3bac4306U,
  0xbd19d13abdee1487U, 0xbe2eaae73d2bdd84U, 0xbe375cb6bd680547U, 0xbdef780ebe483042U,
  0x3e4e9ddabdca08efU, 0x3d7c980d3c924edaU, 0x3e198544bcdf5835U, 0x3de2cf563e329f92U,
  0xbd1ff69ebd2e5556U, 0x3c6c5ac8bcbb3319U, 0x3e7af9bc3e9b1564U, 0x3e624c53bdbff5ccU,
  0x3daa56fdbd918fc3U, 0xbb5b91f73dc7de7bU, 0xbd709c02bde32eb7U, 0xbcfa9047bc8afd3dU,
  0x3d0dac08be006be0U, 0xbd9dc875bd91f3c0U, 0xbd4139afbdd6201eU, 0xbdb5cbcdbddd8001U,
  0x3dd6a5223d0dfa2bU, 0xbd9c30433d9ed27eU, 0xbd9ca9403ca0f6a2U, 0xbd957582bd47d398U,
  0xbdcd6e32be01be30U, 0xbde512a5be1a6960U, 0x3d0831153d5e312fU, 0xbd8a1ef1bd86ebc1U,
  0xbd3ff19abdb76257U, 0x3d37f449bd98f3c0U, 0xbdb4c52bb976b476U, 0xbe0050da3dcb5225U,
  0xbbb96176be22d8e4U, 0xbc35a8febdd341f7U, 0xbdb237fa3dec40f0U, 0x3d12e733be02fb37U,
  0x3e076abebe3cb689U, 0x3d2ec53bbda4fad4U, 0xbdb62711be02457fU, 0x3d5d95163d43eb54U,
  0x3dc4c9f83db00de8U, 0xbd1af097ba59da53U, 0xbcd707b63d01c37aU, 0xbdee2197bcdd124eU,
  0x3da211a9bda00afdU, 0x3dfdcc0ebda0c975U, 0x3c92720c3d280869U, 0xbdf3cddc3ddfd265U,
  0x3d714c633bfca164U, 0xbe283017bc51bce9U, 0xbdc3c6ac3d5f87d7U, 0x3d3afa9f3d405257U,
  0xbcbcd7e03c74474dU, 0x3d5626693be3d70fU, 0x3d4edc973cb3fb4aU, 0xbd98fff0bdabe88fU,
  0x3dbe637c3df8fea9U, 0xbe1624cc3d87a42fU, 0xbd0870193da75b0bU, 0x3dd4db623d90f57fU,
  0xbd078efd3d223d50U, 0xbde3174c3da098fbU, 0xbe18d9fc3d38a796U, 0xbde76cebbd81cfefU,
  0x3d85a9c4bd76e855U, 0xbddc1cd2bdca0d9dU, 0x3da520533d9c8464U, 0xbd94b914b9aa8370U,
  0xbcb9d915bd4c6a42U, 0xbd39d8963cef7d0bU, 0xbde73fd4bdbad4ddU, 0x3dbdbcf1bd406488U,
  0x3bee811e3d2c8757U, 0x3dee41c8bc98eae8U, 0xbd51cece3cda4a13U, 0xbcd63d16bcf81f16U,
  0x3e1d67283e25a509U, 0x3dda98803dc47959U, 0xbd8860723e2ec5ceU, 0xbcc5128ebecadd82U,
  0xbd49062fbb46cab7U, 0x3e0035a0bdf752e6U, 0x3dd8d7993da06524U, 0x3e370998bc8c35b7U,
  0xbe3f911abdaa5e54U, 0xbdc6c1b13c9ef43dU, 0x3e8850b5bba746ccU, 0x3e98734dbe2b9d8dU,
  0xbd7e3f953f00fd70U, 0x3daefcc1bdff2e94U, 0x3d863682bc251642U, 0xbec4b21e3dabb1b4U,
  0x3db908d33e1f6b24U, 0xbd10a149bdbc70bfU, 0x3db615c13e656c29U, 0x3eb61c1cbdc5eb85U,
  0x3e5de7563ed915b6U, 0x3e315affbc9080c0U, 0x3eb1db273e221f1eU, 0x3e9a271e3e3c78c4U,
  0xbe00e2413ec33c97U, 0xbe1224d6be20d1c3U, 0xbe638947bcecbda7U, 0xbe1753c7bd0dc3faU,
  0xbe875b4f3e4b0b97U, 0xbe40dc5e3d9cec14U, 0xbe62fb6ebe77217fU, 0xbe9c71e53ea10f63U,
  0x3e3a581d3bc76098U, 0x3dd400c93e0d55f5U, 0xbca1d3e23bba7866U, 0x3e00b4b8be027f2eU,
  0x3d486e913dc45ff5U, 0x3e4b51ec3d305521U, 0x3e3d406a3d975a71U, 0xbda441693e118d98U,
  0xbe3ae51fbb291e5cU, 0x3bd9377cbe129300U, 0x3e02a0b53c96b52aU, 0x3da84785bd83bb6fU,
  0xbd1e30973e0166fcU, 0xbc394ed4bd8e535aU, 0xbddc8bae3da4be9dU, 0xbdfba064bd5d21bfU,
  0xbd2494103e21d9a2U, 0x3d2f44933cff2b83U, 0x3e2b2d2d3e948ca6U, 0x3e15b4343cf4a148U,
  0x3d3f55023d901b8fU, 0x3e9479b7bd11ddacU, 0x3e6ed6fdbcf3efd5U, 0x3dd49f363e1ae3acU,
  0xbd66d5f83e1f7a47U, 0xbdc4cf9e3dbfa6a6U, 0xbe548ff43e1e40daU, 0xbdc6224abe1a10b6U,
  0xbd77693c3e0ad57aU, 0xbe64b4d73da65cccU, 0xbe83c2debe3e332aU, 0xbe07d1163dc5201eU,
  0x3e56c5a9bcd72534U, 0x3dbfa94ebd8ccc97U, 0xbdcec3f83dd97c8bU, 0xbced5554bde9a013U,
  0x3e11d4b93deb513bU, 0x3d9d0e42bd3b8956U, 0x3dae1cf43e5ebb89U, 0x3de983213c8009d8U,
  0xbe545a6ebdd87b7cU, 0x3ce5e63e3d31835bU, 0x3df80803bdcd4629U, 0x3dce6317bea2bfb1U,
  0xbcaa759f3e861a3eU, 0xbce42fcabdcc0051U, 0xbdf741393cc7d6faU, 0xbe9d3d62bd6bbac9U,
  0xbd9868423d484ce9U, 0xbcd983c5bd95d21aU, 0x3d047d193d6997dcU, 0x3da6bdd9be8fe4d5U,
  0xbcb5ed213e11414cU, 0x3ea474cabe1616d5U, 0x3d79216b3c9f4472U, 0x3e3fe7bf3de7aeb4U,
  0xbdffcbfe3cfb636bU, 0xbdd6d9d2be1d6ff9U, 0xbe822e893d916a1bU, 0xbe253cb73af1f867U,
  0xbe719b8d3e2107ccU, 0xbd87bd1b3c7d2eddU, 0xbd4f3145be3e554cU, 0xbe2cda533daa4625U,
  0x3b859ba2bdd43099U, 0x3ddf4a2b3dd53214U, 0xbd97f4e43b00d0adU, 0xbb4ec2653e0dfadaU,
  0xbd5b73bd3d87f4cfU, 0xbe169e42bd9df198U, 0x3c18b42a3da90204U, 0xbc343990bd7545d0U,
  0x3d0650473b5d3c26U, 0xbc2c41f73c400ce5U, 0xbda8818e3bc4e9f6U, 0xbe2ce5df3da485a7U,
  0x3e1042cfbd196c7cU, 0x3d1d4ecf3dc75858U, 0x3dcef46f3d8093a8U, 0x3d7212e23cb4a036U,
  0x3e14f38c3caf6ff3U, 0xbd962a3c3dd37262U, 0xbdefc194bd223a10U, 0xbe1927653d89e4b1U,
  0xbd9d330c3ba91feaU, 0xbc6711493cb5a15dU, 0x3d428025bca3bfbeU, 0xbde384fd3ccf539aU,
  0x3e13bd573da8a66fU, 0xbc99edbf3da2e508U, 0xbd78f3763d22653bU, 0x3db164bdbbd66519U,
  0x3d44aac33d6167e8U, 0x3dc180febded3155U, 0x3ddba906bd59312cU, 0x3d6054ea3dc1da11U,
  0x3e37924e3e383d2fU, 0x3c8d76853d69f6daU, 0x3ce9617c3e0fb701U, 0xbd2b98d1be02229fU,
  0x3e02071b3e0f501bU, 0x3e7716b8bdc7d3f4U, 0x3c943e26bcce7532U, 0x3d966b17bd97f39aU,
  0xbe84ab65be2afdc4U, 0x3b8c2947be314a3aU, 0x3d6d90c5be114e52U, 0x3e3daeebbe8faf66U,
  0x3d9fdaf93e0ac219U, 0xbe1d8afdbe26fb46U, 0xbe021c50bd232136U, 0xbe96229c3e071eaeU,
  0x3d7fb1de3a8c1b08U, 0x3dd52d49be5085b1U, 0x3d9754ff3df01975U, 0x3e10cd7abe8b059dU,
  0xbd14fc193e0d5635U, 0x3e652578bccdfb2fU, 0x3e6c7fd43e0ae1deU, 0x3e2039203e8194f5U,
  0x3cd7fb9f3e695fc5U, 0xbe77aca83cc8226cU, 0xbe977d533d85526dU, 0xbe1cbe12bdf90b0cU,
  0xbe28d8063e2736dfU, 0xbe6e080e3d00fafcU, 0xbe601b4cbe93aba7U, 0xbe8487c43e2286dcU,
  0xbd8cfc3a3dc9e79eU, 0x3e01b630bd3904d2U, 0xbdafc5193d69dad0U, 0x3c506b553d541e61U,
  0x3d6ba0a7bdd783c7U, 0xbca71cc13bc5c349U, 0xbda9764d3dc72851U, 0xbdc1682e3debe24bU,
  0x3db13286bd989f1cU, 0x3b731926bd894068U, 0xbd71a7253c18dc4cU, 0x3abb269bbda9c774U,
  0x3c28bc403dbe1799U, 0xbbb2bef43d98eb51U, 0xbdef9f39bb617b44U, 0x3d8e3fe43dd31f9cU,
  0x3e040d633d65c8abU, 0xbc8cfa62be1fe0f1U, 0xbcff7af6bda2c023U, 0x3ca6aa753d0153ebU,
  0xbdd0f8d1bcebd82cU, 0xbc4296cfbde3afeeU, 0xbdebb5763c1c01b4U, 0x3c3b3ddf3dbb8e89U,
  0x3d7c6f54be3c5e8cU, 0xbd8586143a8d8372U, 0xbdcbe7773d57ce4eU, 0x3e1f52633d5c1676U,
  0x3d66257c3d9fe883U, 0x3ca11ddb3c07264aU, 0x3d04e9543d13c67cU, 0x3c817ebabcbeee90U,
  0xbe21581bbdbe9932U, 0xbe2064f2be18290cU, 0x3de0cf5cbdfe6fcaU, 0xbe20e8473dd0a586U,
  0x3d0eb861be04decbU, 0xbe524d88bd8ad1a2U, 0xbdba5d5dbe30c22fU, 0xbd525d6cbb7c509eU,
  0x3e2af3c13e159abaU, 0x3dbfc5993d2a237dU, 0xbdf07aaebda04de1U, 0xbdd08b4f3ddecac5U,
  0xbd05b4aebe862f39U, 0x3d5df495be0d91e0U, 0x3db5ad683c2a207dU, 0x3de8eb41bdc36065U,
  0xbb5c10c2bc93e126U, 0xba5acb80bd81fe46U, 0xbd4a7322be6097c3U, 0xbdb334883de520a9U,
  0xbd9ea939bd853332U, 0xbe03801e3ca6228fU, 0xbe265c41bcd3a481U, 0xbd037433be074978U,
  0x3e36c138bd1bcd01U, 0xbc241c90bc1db14dU, 0x3e0d1935be23a4bdU, 0x3d0d73703c8e879fU,
  0x3d7c0ba13d7a4015U, 0xbdb8bfa4bd874056U, 0x3e20e2c1ba4980ebU, 0x3e332430be5636e5U,
  0x3b9b2ce13de38ca1U, 0x3dee6fe7bb65cd2cU, 0x3de814f03d5fb682U, 0xbd8cc3773cc1bd57U,
  0x3d430b223db81a58U, 0x3e038932bd8795ccU, 0xbd6c3608bd970083U, 0x3cad89473b9722c1U,
  0xbe2fec1ebd819f1cU, 0x3d5ec4ff3d34dccdU, 0xbcff87dabc14a697U, 0xbd8df48bbe18d801U,
  0xbcf53df3bc1d204fU, 0xbdd46f183d6d7f36U, 0xbd7ae900bc157d37U, 0xbdd89f55bd9c23aaU,
  0xbda0a245bbc6896fU, 0x3d9f204e3d9356f6U, 0x3e03d8073dea9881U, 0x3e081b57bd5ead8dU,
  0x3da3492fbb4c868aU, 0xbbc0a5ba3d67befcU, 0xbd59e63abd185e14U, 0x3c9f8648bd7aa4feU,
  0xbd9845ea3d9f6f43U, 0xbe0680953c1a165dU, 0x3c89765bbd8b7507U, 0xbd7c093bbe33195fU,
  0x3ceff27c3dc877c2U, 0xbe16b70d3d1fbee2U, 0xbde8218ebd059461U, 0x3d182deabd0a9372U,
  0xbe1384a4bdac1d63U, 0x3c7b25a3bdfd33f1U, 0x3e1b4253bd02f2a6U, 0xbdf793363df223c5U,
  0x3db668e8bcaa0ee7U, 0xbdc3ec193da1375dU, 0xbe312ce7be2ee2adU, 0xbde152e43d074814U,
  0x3d77b4303d908198U, 0x3d82ea863d27aa26U, 0xbe26cefebd978804U, 0xbdd9f9263eb2a4f4U,
  0xbd833c4dbdc59e5eU, 0x3bcf3f063e04cc77U, 0x3d797ccfbcc27c61U, 0x3d247b15bd98e6beU,
  0x3cea5c68bd753bceU, 0x3c97f0bbbca8a3edU, 0xbd45bc53beade129U, 0xbde7b11c3e2f060aU,
  0xbe4dde63be1fd9ecU, 0xbd598cb13dcb9c2cU, 0xbdb9a0b93ddc40b1U, 0x3cacf90ebd70e550U,
  0x3cf31440bd98fdc9U, 0x3ddf7102bd7b97c2U, 0x3e4de02cbd0c1ee4U, 0x3dda5ecf3d95d259U,
  0x3d1b77a6bd89ecbfU, 0xbd8e79573d11dc5cU, 0x3e2bee7b3e87c873U, 0x3e22408fbe3ff166U,
  0xbc3926c0bda427ffU, 0xbe467bc1be070c7aU, 0x3d9fb340bd9433b3U, 0xbdbc73893d7535d6U,
  0x3c6e3818bd94723fU, 0xbe898d37bdf98635U, 0xbd008fa0bdfe65d1U, 0x3d96bfbfbbf3aafaU,
  0x3dfd0f923bc250e8U, 0x3d2f0c133b42e426U, 0xbd54ba35bd31f7f6U, 0xbd9ad0ed3e95c4b2U,
  0x3dedd3a5bea534a2U, 0x3d8bf2d0bde5a01fU, 0x3d0247c4bc7f85edU, 0x3ce52938be0b89fdU,
  0x3e3056a6bc0f5f6eU, 0x3d78271dbc19f1aeU, 0xbe46defcbe19b506U, 0xbdf803e13abdcec1U,
  0xbd3c7852be2ed16eU, 0xbe1f18ebbda325fdU, 0x3c35157bbda84828U, 0xbe0eba17be0507eeU,
  0x3d0424e1bdfa6d97U, 0xbaa2bfcf3da1e2bfU, 0x3cc1441b3d0e4c4cU, 0x3cb0fbc23c5e86bfU,
  0x3e048a033c59c888U, 0x3dccae25bd175cfcU, 0xbcde77bc3e17e29eU, 0x3be24e91bd3d9a88U,
  0x3d8caf5d3d5ff752U, 0x3c03f744bc781eb8U, 0xbd9fae4abda29bbdU, 0xbd8b0b23be1905f0U,
  0x3b1676853d2ba6c0U, 0xbdf2197c3c089132U, 0xbd50fb433df25937U, 0x3d864606bc926330U,
  0x3d9cc354be431395U, 0x3da91b05bdaad445U, 0x3db18e4cbcc9b1a2U, 0x3c1675483ca9902cU,
  0x3dc674da3d021f2bU, 0x3d829daabdf12b40U, 0x3ddd1c55bda8d169U, 0xbda6fa12bd37746cU,
  0xbc4b43583d94dd61U, 0x3dc9af8b3dbbe375U, 0xbd3ef3d33e56276bU, 0xbb7995fdbcdae317U,
  0xbd86e3523d928e9cU, 0x3dbae6623d3a88b4U, 0xbdadcbcabd4d0ae4U, 0x3d5c98cb3db4f870U,
  0xbd60dc693e0121b4U, 0xbd1a71873cce576aU, 0xbd8b1bd63c91e64fU, 0x3cfd2d92be512cf5U,
  0x3d3d301bbd5ca209U, 0x3d726a6dbd48eb7eU, 0xbdf55e9e3c95f4a3U, 0xbccb03c73e3aff8eU,
  0x3db43714bdc3fed4U, 0x3deb6bb53d570bf3U, 0x3de72777bde8a83fU, 0x3df7f0733da88f2eU,
  0xbd8fbb9d3da207bbU, 0x3de5c7be3d95cb1aU, 0xbc1a3842bc0425e4U, 0x3df5dbbc3da24024U,
  0x3da1dbd93d46c1cfU, 0xbd901bfdbd9334d6U, 0x3d97dd5ebd48d1adU, 0xbd9b8956bce50afbU,
  0xbdb13bc73d612a35U, 0x3dc94846be008245U, 0x3d5c541dbd889ee1U, 0xbd09f0bcbbdb0d06U,
  0x3daffb71bb9d53b7U, 0x3de62adfbce71cbdU, 0x3e0a83883da8d035U, 0xbd3ef3dabe06fd97U,
  0x3c3d8193bdaff0e8U, 0x3deade1dbcc7d72cU, 0x3d621e9a3db4121aU, 0xbd555218bdb842c2U,
  0xbcd037173db9dcaeU, 0xbd92624b3c337fd6U, 0x3cabc382bcd55ffbU, 0x3d28b476be095cf6U,
  0xbda782473d74d7ddU, 0xbd11506fbd6efe4aU, 0xbd8fee98bce43b50U, 0xbe06e9cc3e1547baU,
  0x3d4cd970bc446c16U, 0x3d8ecd573bee8055U, 0x3db769a33c88e011U, 0x3d0228b1be4b55bdU,
  0x3c1ac4ccbbb00386U, 0xbd74f2dbbe821dbaU, 0x3dc4e2f13d2f77f2U, 0x3d96d87dbd1200eaU,
  0xbe046556be1baa20U, 0xbc4f033239983b2eU, 0x3e18544dbd290a29U, 0x3e802b79be7dae41U,
  0x3d50682c3e807e5aU, 0xbd673ad6bdac9478U, 0x3cf551a83cac9558U, 0xbccf53163c115f09U,
  0x3d932458bd6a3eaaU, 0xbdc4741bbd345ff4U, 0xbd2f7dd43d69a3eaU, 0x3d86a134bd8c7eb6U,
  0x3db877133de067d6U, 0x3e7583cbbe06a0d5U, 0x3e1bb64abd4a8c52U, 0x3d33a1ac3e48ad8cU,
  0xbd4694e43e4d7c52U, 0xbdff766fbde16ac6U, 0xbd14606d3cc30fb1U, 0xbdab6baabdeadac9U,
  0xbd44b7763d56827eU, 0xbdb53cc8bdad1be1U, 0xbe65e946be5993d4U, 0xbe42532f3e18666dU,
  0xbd5d185a3df78a87U, 0xbdbc9d4a3dee428dU, 0xbd6308b3bcf3aed0U, 0x3d3d826fbda6699aU,
  0xbdb9060a3d9cc51eU, 0x3dc2f918bd98c98aU, 0x3d9b52cc3d56beddU, 0xbcd707ae3d8d4fc6U,
  0x3cbcbf89bdce8e1cU, 0xbdd48ccabd95d7c8U, 0xbccd561dbd90ffdeU, 0x3d2384503d430cc0U,
  0x3d04f9aa3de217d3U, 0x3d9d5d8cbdb3f30eU, 0xbd060240bc81567cU, 0xbda1c72e3e056311U,
  0xbe00c6813cdf4d3bU, 0x3d83a0453d4edeebU, 0x3e267c9abc91c3d9U, 0xbd3f61c7baea60ebU,
  0x3dabc54f3e04e240U, 0x3ce477793d27d98eU, 0xbd6b77dabd840018U, 0x3dbb036f3d602ce5U,
  0x3d4261ddbd923b92U, 0xbd5a398d3d5e260cU, 0xbd96028e3dba4779U, 0x3c884023bd4492cfU,
  0xbd9f10c5bdc92f37U, 0x3c5ca945bc48324dU, 0xbddbbe3abe3ec74cU, 0xbd0a819f3cbaabacU,
  0x3caf898b3d4bad1bU, 0x3d10c7763d6913aaU, 0xbcaa9bd93cfeb722U, 0x3da445fabca488fdU,
  0xbd5ed4aabd20442fU, 0xbc03da473df13de5U, 0x3dab73653d80327dU, 0xbd50712d3d5951deU,
  0xbe266b4b3c903c00U, 0x3df39155be05420eU, 0xbd5ce430bdf43aa9U, 0x3d7c7e8cbe0c8fb3U,
  0xbd8e9dd63db5ab01U, 0xbd22d59cbd1bc59eU, 0x3dbbe3043dca0ca2U, 0xbd8fcd9e3d610b9cU,
  0xbe173b7f3deea7b8U, 0xbd924e773cd3e91fU, 0xbd9344023e1b5f8eU, 0xbd2920133a6e9fa1U,
  0x3d4e0e523e0a8de2U, 0xbcb8747e3db7e022U, 0xbd1d06cd3dac5596U, 0x3d5f5856bc930a53U,
  0xbde5147a3d0c927cU, 0xbd97ab22be00f2daU, 0x3d696cb33dab7b25U, 0xbd7037113d901a44U,
  0xbe2f7971bd7a161bU, 0xbde0cc583e05d2f1U, 0xbe386327bd9851a3U, 0xbcfb8612bcfa8b82U,
  0x3c895c363b46fc68U, 0x3d9edc3a3d50dfe6U, 0xbd8f93dd3c217c5cU, 0x3d4387a9bd7d55d5U,
  0xbd793e1f3e18a6ceU, 0x3db49befbd5acd5fU, 0x3da9b3b5bb3ceaf3U, 0x3c834ea03e4a0986U,
  0xbd61576ebd5b6f50U, 0x3c217da53d9c352eU, 0x3dfbb6c2be287a5aU, 0xbd43cea8be5ddf07U,
  0xbda9c4703e35381fU, 0xbe3b5fa5bc67ac66U, 0xbcc55f153d328888U, 0xbd86e6d83d8aeeccU,
  0xbe0355eb3d937b03U, 0xbdd60561be297f93U, 0xbcdce7cc3e14623cU, 0xbd2b2ee7bd556d7aU,
  0x3c2eed293d914f3cU, 0x3da680efbe40740fU, 0x3d4b5e8fbdee8bb2U, 0x3db5c369bd6e0ddfU,
  0x3cac9dc8bdecdbf1U, 0xbe529af5bd1d21afU, 0xbca4fce03dd99c60U, 0xbd1a2785bda6dadaU,
  0x3c02ba6b3d107bb8U, 0xbe50a05f3e170dddU, 0xbe64ba30be2b0923U, 0xbe2068abbc47ea68U,
  0x3e0c63cd3d8b4183U, 0xbce57c2dbe5f586dU, 0xbddfbac3bcf68463U, 0xbd60a65dbd913ab0U,
  0x3b9925b83db60dc4U, 0xbda3392fbed5c167U, 0x3e3792b53d9b006fU, 0x3cfa4fb1bc569d55U,
  0xbf15f61fbe9fa8a0U, 0xbf0287263dc6ffa6U, 0x3d9793153be62dceU, 0x3e833ca2beb18532U,
  0xbe01b1a53e87bcecU, 0xbe3e3d8ebcf12f80U, 0xbd1a940bbd2ffd5fU, 0xbe6a66113dbece8aU,
  0xbe11c93ebdfb9b6eU, 0xbd426c05be6c7559U, 0x3deed7723d835cbbU, 0x3e3d5c62bf16f407U,
  0x3e27c2223ecb4194U, 0x3e8117bd3cf2f718U, 0x3e26f607be89358bU, 0x3e51a5453ddcb2b6U,
  0xbbb1826a3ec355acU, 0xbe16bb03be892298U, 0xbe9bd4de3d932ea2U, 0xbc65f8a5be93e80eU,
  0xbe17e1f8be062efeU, 0x3d0a73713daff4baU, 0xbe81ed6fbe56c027U, 0xbd86f47c3e3f5b4cU,
  0xbe18c721bdee8af0U, 0xbdf13a7ebd8c1a43U, 0x3d886d493d0383b5U, 0xbe24b1703e5b3f83U,
  0x3d5d1e60bd861217U, 0xbe5176273d848e43U, 0xbcc13ea3be369ca0U, 0xbe377567be0ea167U,
  0x3d79397a3e43fa88U, 0x3c9f9c173e2edb68U, 0xbe55a66ebd28ef42U, 0xbdf539ca3f00d0f6U,
  0xbd50e4ebbe80ceddU, 0xbd7afb5a3bdbe061U, 0x3d81ffe5bd43db71U, 0x3e6e3d2ebde88879U,
  0x3cb988543c0ee3eaU, 0xbc865048bd5749b0U, 0xbe05b132bed43e90U, 0xbe56fd193e19da71U,
  0xbd5a0eb1bdfe164aU, 0xbec770ef3cbe5350U, 0xbdb89297be2f30d2U, 0xbea61864bd97963eU,
  0x3da685efbdebaccbU, 0x3d41ab883e1989eaU, 0x3e532b77bceee89aU, 0x3e81344c3e73d81eU,
  0x3e1fa63fbd11301eU, 0x3d593e2cbdef30feU, 0x3ea6ecec3e823925U, 0x3e4a51a2be95875bU,
  0x3d757c093dac29e7U, 0xbc958b783d8dbc2fU, 0xbd0a80693d719534U, 0x3ca8976f3dcf6ee1U,
  0xbded5107bbc9ea7fU, 0x3bc216d43e15577bU, 0xbda023243e26dbc3U, 0xbbb1195fbde80624U,
  0x3cb6bf08bdda63ceU, 0xbd99aaf53cda7fa6U, 0x3da50f693dcec1c4U, 0xbdacae8ebdfb69f7U,
  0xbda903263db63a2cU, 0xbc8f5a1c3d3596e2U, 0xbd4805583d430fe3U, 0xbd48a6053c190948U,
  0xbdd1681dbd806773U, 0x3ddd3e053d26fccfU, 0x3cf282b93bd9c017U, 0x3de715593de0d60eU,
  0xbdc85417bb424e3fU, 0x3d78a54d3d6c143cU, 0xbddc1fb1bde3007eU, 0x3ddfd9b93cbc3283U,
  0xbd9da1ecbdc02177U, 0xbdcbc1e9bd073d99U, 0x3dce9fc8bd6801feU, 0xbe0f9f933da32a6eU,
  0xbdc65a603b81675bU, 0xbd92b9d83d3fc951U, 0xbd603895bd5d3707U, 0x3db9af773a92e833U,
  0x3d542f6cbd65012cU, 0x3c2d45d93d9fec2bU, 0xbc2d30bd3b3abf2fU, 0x3d7eb81bbd89383dU,
  0xbd8eea6c3d8b2220U, 0x3dd02df83dcc81e9U, 0x3e2d627cbc828863U, 0x3dd1276d3c76a73aU,
  0x3d904e09be0f9eb7U, 0xbde638c43d835d8fU, 0x3be652e0be193d5dU, 0x3d0f21babe445840U,
  0x3c05f0e93de0633eU, 0xbd280ee03d0599bdU, 0xbe1cb0a2bd9b5f07U, 0xbe3548523d99f657U,
  0x3c1cf4b4394f9c01U, 0x3d51713ebe0246aeU, 0x3e1bbc293dd1596cU, 0xbd5a2de13d1463b1U,
  0xbd1ee3f1bd8f5bf7U, 0x3dc342e0be0b99a6U, 0xbd8b6a2ebd9712ecU, 0x3e032b6c3d474abdU,
  0xbe3e251fbd61b377U, 0x3a921cddbd197b56U, 0xbd61cc933e12ed53U, 0xbe2e03403c9d33dcU,
  0xbe0faf133e170136U, 0x3cebac39bdac9a23U, 0xbc7dab7dbe0a0e69U, 0x3cd6bf1bbd44b3b4U,
  0x3dc961e93e2e13ccU, 0xbd2a346d3e046b87U, 0x3cfe46263c141775U, 0xbcd68507bd0ea89fU,
  0xbc6881803e04aeeeU, 0x3e01e2bfbc6ebd99U, 0xbd81143abd19f581U, 0x3d8394b03da6b010U,
  0xbdb0f8443d3249baU, 0xbda620fcbddd5176U, 0xbd1442943e10db5aU, 0x3e7e032dbdabe31bU,
  0xbdc731d03e74daffU, 0xbd823be8bd8bcf55U, 0xbe18a8013d8d7be9U, 0xbe48612bbde65f54U,
  0x3d566eea3e072f0cU, 0x3e07024f3d97480dU, 0xbd155eb83d42a926U, 0x3e323cf5be00d993U,
  0x3dbd95ec3e32d2c9U, 0x3e0def59be0809e3U, 0x3dad6212bd2096a3U, 0x3d6168b23dbe765aU,
  0x3dbe7fa33ca6216eU, 0xbcf4b760bd1783d0U, 0xbc92a3e53e28ed2eU, 0x3cb60aae3d496dbeU,
  0xbd4adcfe3e133cb8U, 0xbdeb82b63df5bc5bU, 0xbd7e5541be2fa317U, 0xbdce45b23e23574fU,
  0x3dd14a93bcce82cdU, 0x3d9898993df9b19eU, 0x3c644ef83db1dfcfU, 0xbd74f20fbebc7827U,
  0xbca6c1ec3d068c62U, 0x3e961bc53de7461bU, 0x3df749c13d8ff74fU, 0x3c965167bce9165bU,
  0xbea9fa18bd1c7ba9U, 0xbcd3f835bc9e708cU, 0x3e4a71d9bd6c98b0U, 0x3eae5824be8ce3a0U,
  0xbc4db26c3e83b5c3U, 0xbd57dd07bdbc3a1dU, 0xbdbdfc1dbdf7a481U, 0xbead09f1bdcc5504U,
  0x3d379afcbd626fe0U, 0xbd069770be3c71abU, 0x3e2d0f1f3e23a200U, 0x3e12ce60be215e1dU,
  0xbbb65a123eb53078U, 0x3ec70ec6bd9355faU, 0x3e116e9b3dbdd417U, 0x3e0d35903db0ef2dU,
  0xbdc8a1833e95eb1eU, 0xbe6e1781bdfea51aU, 0xbe36540e3dbf14ccU, 0xbdf2b79ebbf82020U,
  0xbe86e5e4bdef8e83U, 0xbe385b05bd28bc37U, 0xbec92125bdeba9dbU, 0xbeb233673e8777deU,
  0xbdc8f044bd743a59U, 0xbcd4745d3caa35d5U, 0x3d0b6d0e3d5702f9U, 0x3d0dbf183d53ec6eU,
  0x3b8304133d04ec65U, 0x3aa974363e1bdbfbU, 0xbddd4c193dd03d11U, 0x3c58b486bd3997bdU,
  0xbc10cfa7bc898765U, 0x3d1c22863e0e7437U, 0x3a54182e3dc7e77fU, 0x3c5571ecbdc59440U,
  0xbde7d83b3c9b8c2fU, 0x3dc3aa25bccfb750U, 0x3d59a40dbd9af30bU, 0x3cefa0503cf3f53eU,
  0xbe0f08cb3d9d8de6U, 0xbd69851f3cd10e32U, 0x3e1d145cbcb0edb5U, 0xbd4a4d453daf5c53U,
  0x3d78045a3e10af01U, 0x3e1d3f533c8a0ce2U, 0xbb808a12bcb37512U, 0xbd70f8393df3bcfcU,
  0xbd4b3dce3c1a89c2U, 0x3d0826c43dd0518bU, 0xbd2b423f3c9dd98eU, 0xbe06d80fbabb8976U,
  0xbe0963a53ce75087U, 0xbd40165e3cda4d43U, 0x3dabaefebd8f46e7U, 0x3ccd10ae3d1d2817U,
  0x3cca5e54be20750eU, 0xbd56c6c33b73fbe6U, 0x3d67bd96bdbb9be0U, 0x3e21cee23cf69fe3U,
  0xbb7225b13be7806dU, 0xbbde8ca13d95f42dU, 0x3c5264b43e05970bU, 0x3d8d9767bced85d2U,
  0x3e0cc3fcbd8faf67U, 0xbd1943a73d58b374U, 0xbe6efb743da2c728U, 0x3d3000f03daa4afdU,
  0x3c0e89f1bd289a50U, 0x3dc6659b3e0b6c92U, 0x3d9fd1073dd83fbbU, 0x3d8f0ec9bd7fd85fU,
  0x3dd335283d55a27dU, 0x3d74d6333d93bce1U, 0xbd67e6a3be5cf7d2U, 0xbe0cd71d3e48fa11U,
  0xbe4361b3bdfb6ff0U, 0xbb8d50103d9539d6U, 0xbe4832c5bd8fe39dU, 0xba317c9fbd1feba3U,
  0xbda418e3bb951429U, 0x3da8e10d3e65480eU, 0x3e84f3473b9b65aeU, 0x3dbc8d73bd6db37aU,
  0x3e57001dbdbda124U, 0x3de96da4bd14a77fU, 0x3e2a79dc3d426c3dU, 0x3e27d457be13dacdU,
  0xbd9498d63dbd63f0U, 0x3c96186ebdb2554bU, 0x3c3429423bae8dc0U, 0xbcf709033de5ddccU,
  0x3d7663393c8a1105U, 0x3d3fbdecbd9b2fbeU, 0x3de4fe3f3dae045dU, 0x3dfb1828bd096431U,
  0x3d33e482bdc53649U, 0x3e09e4b5bc63d356U, 0x3c8aa882bdd3e169U, 0x3d6a2a24bd857778U,
  0xbd6610cd3d100eabU, 0x3d0ea714bc47a6bfU, 0x3dd043523d2f408fU, 0x3ce1383f3dabf121U,
  0xbd9a5f273d4acfa9U, 0xbc0c066d3d9fca87U, 0x3d50796d3dcc4facU, 0x3dab9167bb57c1b0U,
  0x3c8f1405bdaba1a1U, 0xbd60b5db3d49e74cU, 0xbe01276b3db56f77U, 0x3dce9552bd9708e4U,
  0xbe24f08a3d40adb6U, 0x3c0adcf83d385249U, 0xbdfd24863e230ee1U, 0xbd8420fdbd82e732U,
  0xbcc770cdbceca28dU, 0x3dc0c855bdfcb030U, 0x3d090624bdb5aa66U, 0x3a542f26bd77c62dU,
  0x3e980152bc1aed7cU, 0x3e2fad643d57f872U, 0x3d8916993c9b9deaU, 0x3d18feecbe8bbfd1U,
  0xbd740cc53d8eea3cU, 0xbd542ff0be7caeeeU, 0x3d76af193e6dee26U, 0x3e1bb200bd34c009U,
  0xbe11122ebe219096U, 0xbd69c262bdb49c45U, 0x3e47c9503ca894d7U, 0x3e711317beb422fbU,
  0x3cd4f4e73ec039ceU, 0xbc0e0ff6be199c22U, 0xbe198ae4bd514515U, 0xbe42f83d3d8fb609U,
  0xbc9f7408bd0c4febU, 0xbd62c30dbdec0e8cU, 0x3e735eaa3e593040U, 0x3e30e18fbe72b4c5U,
  0x3e07a8be3e12afe2U, 0x3e832660bd87e0a7U, 0x3d8b0e953d127fb8U, 0x3e630ea13e90c239U,
  0xbe181d1e3e3eac9eU, 0xbcc546a9bc5eae58U, 0xbe18f131bd23c08fU, 0xbda40112bd9c552fU,
  0xbe2bd941bd8b3a5dU, 0xbe0b5c473d535f10U, 0xbeba2d8bbea8d9a7U, 0xbd66ac953eb21e75U,
  0x3aade66d3e0d46d0U, 0xbd5c4fc73d8e041eU, 0x3d9acf943db7b377U, 0xbd8836d53c03413aU,
  0xbdb678303e059f22U, 0x3ca30eb2bc85fdeeU, 0xbd404cbfbdf64cffU, 0x3cf99852bd267c27U,
  0x3d08370d3be4a2fbU, 0x3d811784bce8066cU, 0x3e3717c6bcec48e7U, 0xbd95e71a3b2c1defU,
  0x3d914067bb1afed7U, 0xbe1e0c803d6daa84U, 0xbdc661c0bd39a892U, 0x3d657c5a3df586a9U,
  0x3d40b93f3e0319dfU, 0x3deabb73bd860dcaU, 0x3d002a14bc948264U, 0xbcd25492bd68631fU,
  0x3d9506c4bc47b6cdU, 0x3b893973bd9b20b4U, 0x3d9a7f92bc3c1391U, 0x3dc427f5bd37e795U,
  0xbc6a4095bdc4d697U, 0xbe2ff5f3be249b01U, 0x3d42ee7b3b8233f9U, 0x3d24ec4f3db5547aU,
  0xbdf7efcb3dc83b27U, 0x3c9479d73dd28725U, 0xbe4094dcbe49e5b9U, 0xbd50b0913e168115U,
  0x3c6dfa61bbb79490U, 0x3de696d73df88ca4U, 0xbe1141ff3d44a8a7U, 0xbd68774dbe5a3fe9U,
  0x3c18ec113e101f9cU, 0x3e669bba3d551174U, 0x3dad570a3d1d818dU, 0xbd132f0f3e316a4cU,
  0xbe6e47c03d0489e5U, 0x3dc9c4f7be1aae2fU, 0x3d7b522e3d00cd85U, 0x3e4eea75be03dfecU,
  0xbc5b116c3ed9b5d6U, 0x3d0754bc3c0a7c36U, 0xbccf77bbbcef0f80U, 0xbec469953d62261cU,
  0x3d1872513dee8f02U, 0x3e256f8cbdc6df09U, 0x3d6d504d3e62af71U, 0x3ebf3768be6983ebU,
  0x3e564d6f3e76fc1eU, 0x3e9ce488be5fc411U, 0x3e86689dbd05ebeaU, 0x3e548a623ea360a8U,
  0xbe43b19f3e523b5bU, 0xbe8c11fcbdd1ad2fU, 0xbea2914b3e6ade3dU, 0xbd71ba2dbd574ad3U,
  0xbec5db023e06e2b3U, 0xbe6d13c93d21fa2eU, 0xbeb0aeacbe114ca4U, 0xbe4668b83e98bbbcU,
  0xbce2a958bdb21609U, 0xbdb4eea3bdb75675U, 0xbc4f4e89bda05867U, 0xbd8114593e3d04b8U,
  0x3cb74a08be14a7c1U, 0xbeb26410bddd50f0U, 0xbdbd8d4c3c87ab56U, 0xbd40b019be08a61cU,
  0x3e985dad3c23bc3bU, 0x3e018066bb0cb205U, 0xbec5f8153ddea957U, 0xbe4792fa3e574b61U,
  0x3cf4af9abeb542f6U, 0x3d701a28bd93a1ccU, 0x3e2fb833bd53b32dU, 0x3d9130b5bc955687U,
  0x3c53dd8fbd613b68U, 0x3d8679c13e72b237U, 0xbcf21d53be721350U, 0xbe8b9e5f3e2a28b3U,
  0xbd672cc0be76c125U, 0xbea082e53dab34b6U, 0xbdc8bcffbb5d4936U, 0xbe47d156be8a900fU,
  0x3d015539bea2198dU, 0x3de922143dc436c2U, 0x3e98f112bd3a13eaU, 0x3d4938473e56fe07U,
  0x3e458f663c94630bU, 0x3e0591f0be3c1722U, 0x3e6ef1823d9526a3U, 0x3e4a0498be5c359cU,
  0x3d859527bc808d5fU, 0xbdcf2528bba3204aU, 0x3da485973d150773U, 0xbdbbfcb4bd1839f8U,
  0xbd69d7e3bdd27e1dU, 0xbd16b41dbd010e1fU, 0xbc3d0013bba6c0edU, 0x3b5c8cfa3dc3af88U,
  0x3b6133bcbd3a0cc4U, 0x3d0dd9adbdc92f84U, 0x3c7bb5bdbe05dce5U, 0x3c4a78e6bd225d37U,
  0xbd6dd1b43d4b630eU, 0xbdd617debd8f5670U, 0x3c2dcda73c8069bbU, 0x3dd2d1d2bd6eee09U,
  0xbd88e5823d471c8fU, 0xbd7fda9bbc85f7b8U, 0x3d4f6c1ebcff409aU, 0xbe0069393c89091cU,
  0xbe0b27173d0c06a0U, 0x3cca9f42bd48eb4cU, 0x3dc876013e2cf8d5U, 0x3d6e7e59bd85a31dU,
  0xbcdd3bbfbe2f0f08U, 0x3d25dc84bd16c3f1U, 0x3d179109bd6ec852U, 0x3df65ba73da650a6U,
  0x3dfa3e333c90e852U, 0xbd05340dbdf2773cU, 0x3d2cf8843d2c37e4U, 0xbd8459133d6b0fb5U,
  0xbe5b0bbd3d151d73U, 0xbda27f7bbe19cea3U, 0xbe155a38be366e07U, 0x3c3c3a85bd8b2a60U,
  0xbcd7ba203dc294e6U, 0xbe0ca88e3dc4d476U, 0xbdcd0a1fbdabbda2U, 0x3db04c9bbdfadd93U,
  0xbd37af7bbd826618U, 0x3dd3cad2be325b95U, 0xbe0f7e4abdd85caaU, 0x3e4458af3c8eb405U,
  0x3c886160bda3cbb2U, 0x3d2b65dabe0585cbU, 0xbd4e9b5f3e10724dU, 0x3e43f07d3df986f3U,
  0xbd738a8abd80aea1U, 0xbc5def5fbe79fd0bU, 0xbd94d769be1b576cU, 0xbdf818c8be30ec7eU,
  0x3d82c165bca6222cU, 0x3e1a40bc3e1f6dcfU, 0xbdae1c6cbe0223b3U, 0xbd546bbdbdbb0e8dU,
  0x3bde1fd5bddedebcU, 0x3e1ac134be30a15cU, 0xbd2c1e8c3dd66289U, 0xbe01d0fd3d82e368U,
  0xbd239ed3bcca2b45U, 0xbe2242e5bd6e9671U, 0xbe5ffbdabdba1fd2U, 0x3c16fa093d848b02U,
  0xbe7a1c2b3d8ac626U, 0x3d8ab4393da0db51U, 0x3d9dca163cd56699U, 0xbe51690dbd6496d3U,
  0xbc76b0b7be7bcb51U, 0x3a3cdc59be7e9254U, 0x3960393fbca9e815U, 0xbdf248ad3ddd762fU,
  0xbdeb8335bd80420fU, 0x3caf64c0bcb09e74U, 0xbc231014be878575U, 0xbdea4e123d48ef4aU,
  0x3d11d8eb3d58e2b8U, 0xbe5abe67be8a6cf5U, 0x3c15115bbe13eb62U, 0xbe214ec9bbf61ab8U,
  0x3d3e5d3abda4b6a7U, 0xbd591095be6e8f89U, 0xbe4609d6be397aafU, 0x3df39846be6cda56U,
  0xbd1dd3e8be541b48U, 0xbe5822dbbe517f9fU, 0x3c426aefbb05dfa4U, 0x3d56755c3cd0cdc8U,
  0x3e51528a3d22664bU, 0xba204a93be2999d4U, 0x3e60366d3d1f2fe7U, 0xbe2284e53e08245cU,
  0xbead86343e016a85U, 0x3dd74358bdcedd29U, 0xbc36cfe03e348062U, 0xbda9d32dbe87f1ddU,
  0x3d82f1413db6f4b6U, 0xbd37b2373e5bfd1bU, 0x3ccc20e23e0872c5U, 0xbdb365233d6ad683U,
  0x3d7b6b1ebd924700U, 0x3df828b63d2b46adU, 0xbd9d272ebe182b2bU, 0xbdc31e2cbda23eadU,
  0x3d6b5c91bd8b2750U, 0xbe420d893dc0dcccU, 0x3e0c0a113e1ff2aeU, 0xbe5106e33dd935a5U,
  0xbcdd8a273debb93aU, 0xbdeee2a13ddcf883U, 0xbd8b4ecebcda0573U, 0xbeb44dca3d4183e6U,
  0xbd322c19bd10a869U, 0x3cd62fd43c2cfc94U, 0xbb114cba38d23c40U, 0xbd0bc18f3db6d701U,
  0xbd6d3f723da701d5U, 0xbda69a22be5d71b3U, 0x3dc3f6e43d168088U, 0x3d9dbd083ea56a87U,
  0xba13249ebd9456e9U, 0xbeb264ba3cf5001dU, 0x3e33780c3d9f0962U, 0x3c81e1373d8220baU,
  0xbde9b0953cd42553U, 0x3eb97d9a3c73a846U, 0x3d4bd98cbd055525U, 0xbd7863c3bd9a5227U,
  0xbe7a6183bc063bf4U, 0xbe43b699bd3871d1U, 0x3dd2bfc6bd302071U, 0xbde084193e09a066U,
  0xbd999a62bd967410U, 0xbd088803bcd7deb9U, 0xbdd933173e2a787cU, 0x3d3f30063cada5afU,
  0x3dacbdc7bc3b1722U, 0x3ce766d03d745bcaU, 0xbe0d7b8fbe595ebbU, 0x3e0419c6bd88e8b2U,
  0xbd93113ebd5afdc9U, 0x3d54cd12be9ccd8bU, 0x3d9be1f83de272fdU, 0x3dcb8b8cbdb2207bU,
  0x3d9bff55bc43d11eU, 0xbe43825ebe33f020U, 0x3d6627c5bd9fa975U, 0x3dd26433be4f4fa7U,
  0x3d9c88773df305fdU, 0xbd0cbda43c20cb08U, 0x3d89b50cbd9fd2c8U, 0x3d8ce2a9bda88bd9U,
  0x3d7e19713d3a123bU, 0x3d94cee8be94b9a1U, 0x3c5bb4623dc35008U, 0xbe80e9f7bde5d50aU,
  0xbe0742153cfe5bc6U, 0x39e270cc3d78bc1cU, 0xbe5e46c335ff4eccU, 0x3de0aef8bd955a09U,
  0x3e31cfbd3e2e4a5dU, 0x3df800653db0ddacU, 0x3d2d85fd3e30502aU, 0x3e17ad19be2c1c4bU,
  0xbe042be6be30c06dU, 0xbd62bc52be833089U, 0xbd33071ebd0d00bfU, 0x3c98ead63e3edda4U,
  0x3d92fde7bdebcf00U, 0xbe125da5bd9736a2U, 0x3e2048db3e3dae2dU, 0xbe039aab3e208f88U,
  0xbd2cc7fa3e5b80ffU, 0xbdc0b4bd3e2d44f3U, 0x3d1763193d9fe38eU, 0xbdf87bcd3ded667fU,
  0xbcf8746ebb9fd347U, 0x3e82beb33e72b68dU, 0xbde28ac83dca8812U, 0x3c50bb0d3e4cda45U,
  0x3dbddde1be7c42afU, 0xbe8bcf8bbe594fa1U, 0x3dc34dce3d6e052cU, 0x3e373e553d7971a6U,
  0x3e1b00523e806efeU, 0xbe2e14e43d859c1cU, 0x3e0dafb43d9933f8U, 0x3e5c483a3d43d102U,
  0xbe0a91ae3d84fdb9U, 0x3e1f7ae8bdc01e19U, 0x3e7f80893cf4afefU, 0xbdfc05f5be84f823U,
  0xbd3f64703de871b9U, 0xbe04b56d3ce27b96U, 0xbd5c7ace3e458118U, 0xbdd643cabcaa872aU,
  0xbddc25d3bda0ea47U, 0xbcea02c1be308a26U, 0x3da49f79bdaf4b5eU, 0x3dca14333beca63bU,
  0x3c451c9ebcec03aaU, 0xbdbbb0f63deaf595U, 0x3e010982bdb71430U, 0xbd54fb34bd63c134U,
  0xbcd142c03d6effa9U, 0xbdf11940bd5bed32U, 0xbd0e28423c2a20b4U, 0xbdeec3e4bcdb111dU,
  0x3d84d7d13d1a417aU, 0xbdc0124dbe2e6a8dU, 0x3d4ab2dabe0ab707U, 0xbdf45b653d38c2acU,
  0x3d5c92dc3cd34d28U, 0xbbcfcf8dbde2dba9U, 0x3e0988c83db857b7U, 0xbd7010a13dd0f897U,
  0x3d527048bd85ba74U, 0xbd608c46bd66e21aU, 0xbd86d55c3e04f147U, 0xbddf321f3c03805aU,
  0x3d5f7eb63ca09423U, 0x3d4a125c3b96513aU, 0xbe33fbac3c7cf82aU, 0x3d8007cbbe2cb927U,
  0x3d4a7ac5bd1c3416U, 0x3d2197e1bcdf2eacU, 0x3ce4046c3e2cd51eU, 0x3db7e8033ccc810cU,
  0x3dabb0b0bd609445U, 0x3dd00d18be1a59c2U, 0xbd101179bce277a8U, 0x3b98b2e63da80111U,
  0xbceeadcb3dcd0394U, 0x3ddb4114bd9e812eU, 0x3de3cf9cbdd5694dU, 0x3d93998f3defdfb0U,
  0x3cfc28323c0a0519U, 0xbe0c2b40be2c92b0U, 0xbdd8be0fbcc54fa8U, 0xbc3ec1dd3dacc86eU,
  0xbcbd3078bd164895U, 0x3c780cd23de2af28U, 0x3dcb527f3db84956U, 0xbdc80734bdb54ea9U,
  0xbd391c7c3dcd9ea6U, 0xbde745953d9749fbU, 0x3d7594603c685732U, 0x3d963a143d07094cU,
  0x3d3ba8d2bdb4b751U, 0x3d438201bd720085U, 0x3de05f393d8a7964U, 0x3d636e543d889138U,
  0xbdecb5a6bc3d2e20U, 0x3e1cc883bcfaae83U, 0x3ca24f4b3d18ba7cU, 0x3c56d1fcbc9819d5U,
  0x3b955fa53e13d33fU, 0xbd25c30d3db4bc9fU, 0x3db5c858bd120152U, 0x3db95f393c9beb25U,
  0xbc5037643c8891feU, 0xbe099a1cbe3bfad7U, 0x3d9f3e673bb0e531U, 0xbd3bac433bafb0c3U,
  0xbd5526543d3aafa4U, 0xbde4aff73d01afb9U, 0xbd397c92be0f9978U, 0x3c13d36ebcde4cf5U,
  0xbcab1d713dfb07bfU, 0xbd623a46bdabed33U, 0xbc956c63bd3636e0U, 0xbe06eba93dcc82ffU,
  0x3dd75a663d713162U, 0x394f598e3c5b8c8eU, 0xbdcd2693bdbd2354U, 0x3d8051ccbd8c2f23U,
  0x3ccb3c663d207bf6U, 0xbde3a3d23d3d6bc2U, 0xbd493d273c8f1744U, 0x3da05e133dc83a93U,
  0x3de9799c3d8d2af5U, 0xbe39b322bdb3f9caU, 0xbd9acf3bbd8b3f52U, 0xbe01acb33dd3d4c8U,
  0xbe5ff330bba172f4U, 0x3e4de4fdbd371766U, 0xbd659e943dc85cd3U, 0x3db7a4d3bcb70c51U,
  0xbe7679763db9cab2U, 0xbe34c2f3bd8e6a9aU, 0x3de3e810bdb17980U, 0xbe1cf773bdae21a5U,
  0x3e1813a63d9b54b6U, 0xbd7065e0bdf31556U, 0x3d993b023cc426f0U, 0x3dcc55f83cd14ae4U,
  0xbd12ee133dcee659U, 0x3d14108d3d9df47bU, 0xbe045229bde94a37U, 0x3dc186edbd4f3d14U,
  0x3dbc5f49bc943a2aU, 0x3afbce23be5ab59aU, 0x3d704d023de8a78cU, 0xbd33b14abd616728U,
  0x3bef4c7d3d40579dU, 0xbb2ec121be742a83U, 0xbd846e06bd7b4481U, 0x3de847e4be63b396U,
  0xbd8b412a3bbc1e97U, 0x3e1aec8bbda1ea54U, 0xbd703fc53d40841eU, 0x3d9ed75bbe2d53c6U,
  0x3d3a599b3b13dedeU, 0x3de8e67abe98291aU, 0x3dcf45f7bdc9756fU, 0xbeae8282be1f1190U,
  0x3d91b77bbddaa45fU, 0xbe2f0e9a3dd30da6U, 0xbe743f4d3e1b1883U, 0x3d8c86fdbe077cafU,
  0x3db641443d874d7bU, 0x3e09270b3c8399beU, 0x3d18ba9bbe333374U, 0x3cbce55bbd2ef3c5U,
  0xbdc3e8613da3e023U, 0xbd45e0e83d43bd5fU, 0x3c63785d3d8e4db5U, 0x3ddc88ca3d8aae31U,
  0xbdf9320dbd876477U, 0xbd85b32c3de7d01aU, 0x3d6cca1b3d2fe5dbU, 0x3df3f9a0bc84b825U,
  0xbd0d8eba3d5c0975U, 0x3d09a4043d92b1cfU, 0x3dd864673e13ba60U, 0x3d997b49bd9278e3U,
  0x3db0313a3d81599dU, 0x3d2ef9fd3d4d1772U, 0xbbc184dfbbc7b951U, 0x3dc08207bd57ba74U,
  0xbd8af7af3dc7a7e6U, 0x3dd28b00bd9d1cbbU, 0x3d738399be005924U, 0xbd50de26be3c248fU,
  0x3d6744dfbd42b7ffU, 0x3e1bee513c1519a1U, 0x3db661983d4d198fU, 0x3e14ff4c3db53956U,
  0xbbed6c673db9eda7U, 0xbd40cd01bd1dbf1eU, 0xbcc2ea633d8873a3U, 0xbdc6f20fbdd0775fU,
  0x3e0e42e4ba805addU, 0x3d35eeeb3d8a9d55U, 0x3d05a5f0bd033978U, 0x3e5971babe429974U,
  0xbdab8e60bde07404U, 0xbd9dd4fabdb33885U, 0x3d13dfc43d4cd32aU, 0xbe3e99603d9dec5dU,
  0x3d7c1fca3ca6547fU, 0xbde7eccf3d157e74U, 0x3e6b18d23e59cc76U, 0xbdbdafa23e4030c1U,
  0xbdb184bf3dab1baeU, 0xbd6394b93d4093bfU, 0xbd4700313bcec38aU, 0xbd1ad259bda98245U,
  0xbdd1db55bd074f76U, 0x3cb860a23e7cf9ccU, 0x3d09ed5c3e60111eU, 0x3daa548a3d863695U,
  0xbcdc50afbe300ab2U, 0xbe33a8953cfd1e20U, 0x3d4baaecbcc88a53U, 0x3e1fe4733d3ead89U,
  0x3d52555d3e47d15eU, 0xbd5475303e30ac82U, 0x3d2a20693d58c5c9U, 0x3e8524923d5dd146U,
  0xbc25552b3d9efc1fU, 0x3c551fb53d364188U, 0x3e75d3293d00b19eU, 0xbd1434abbe2b272bU,
  0xbcb65b803c1b9a43U, 0x3d3e1c07bd688119U, 0xbdb3f9433dc435a1U, 0x3e14cde0bce14502U,
  0xbd0cb145be2400d3U, 0xbe0a12e2bd8b0da5U, 0xbda720b0bd3533e3U, 0x3ba475fd3e20eac9U,
  0x3de196eb3d5f3e4dU, 0x3d30507a3df20f9fU, 0x3c43a3e33e17e97dU, 0xbc8b42103e4723f8U,
  0xbd359f16bc4561aaU, 0x3c43ca9a3e7653ecU, 0x3d0af1663da744e2U, 0xbe1a1ea33e026fb7U,
  0x3c455759bd0bf9b5U, 0x3e503bbd3e07a9c3U, 0xbc9df67f3e03d69dU, 0xbd430ab53e36c8baU,
  0xbdaff868bdb8589bU, 0xbe2d077bbd4cb593U, 0x3e0e015f3dc5ca20U, 0xbb92492ebd90ac2eU,
  0xbda5106c3e4653d6U, 0x3d9058d23e73f46dU, 0xbd9cd98a3bda4385U, 0x3e592f1c3dc9932dU,
  0x3d0014733dde7d81U, 0xbdf1ea813d8c37daU, 0x3e15401ebc2cad26U, 0xbddf32a63cb0ce8cU,
  0xbe337f6abbe25dd4U, 0x3c2b9165be0108f3U, 0x3d8c0d493d38f0fcU, 0xbd759f073b941d2eU,
  0x3da325363ab5fcd9U, 0x3d348a59bdbb0d3aU, 0x3d5b0de03e0300d2U, 0x3de14d10bdb7c9e0U,
  0x3d827c56bd757f34U, 0x3cac98a73dd2b07aU, 0xbe26dd51bd1c23aeU, 0xbd2181f1bdd398e0U,
  0xbd378bf5bdc7d8a5U, 0xbd44b603bd020289U, 0xbe0282a03deae8feU, 0x3db5c8b93d16c84dU,
  0xbd26c8233e09d339U, 0xbd9c5e71be8a53aeU, 0x3c505bec3cd4ba10U, 0xbdbd413c3d2e8234U,
  0x3d4a4b71bd8ecf6bU, 0xbd9357d33cfd6af0U, 0xbc6eced63dec42f5U, 0x3c917a54bdf7e33cU,
  0x3c432706bdba3dbdU, 0x3cff184cbe52c83bU, 0x3dfece8e3d34d13eU, 0xbe435b65bdbbccd8U,
  0xbddc1f293e0721a3U, 0xbd00afbcbd4ac592U, 0xbe4195cebd5ac791U, 0x3cc454fd3dc421c6U,
  0x3e104ce83d82b984U, 0x3e122d7b3e087becU, 0x3d3f12c73dbe568bU, 0x3e17d2503d1c58b4U,
  0xbd80b28bbda325f9U, 0xbded37f4be15a148U, 0xbd7b9a5c3dbb2e5eU, 0xbe392e5ebca98f4dU,
  0x3d3e218abdb82c9aU, 0xbe3533243daa3867U, 0x3b6113003dc3b6afU, 0x3cd0e2d03dcc1affU,
  0xbd7cf636bc33133eU, 0xbdba31833e44c0beU, 0xbdab6ba1bcd80090U, 0xbc9a1c883dcf78a4U,
  0x3d907bcabdd5940aU, 0x3e0d5c0f3e83d480U, 0xbd4fc2a93b839d91U, 0x3d51b7a03e3c119fU,
  0x3dd0ccf3bde379ddU, 0xbd8fceb4bdfb69beU, 0x3d32d8c13e06c80aU, 0x3dceacb1bd82d6ceU,
  0x3d8575793e107c1aU, 0xbda489ef3d377f81U, 0xbc38533e3cc544b8U, 0x3dd349323c1ad951U,
  0x3dbac2753d355c55U, 0x3daff5c1bcc14839U, 0x3e10753fbcaea37fU, 0xbdbff528bcc3c89fU,
  0x3d3358373be46f6bU, 0xbd2a1ca43e057236U, 0xbddbc54b3d98fdf3U, 0x3d881573bd8b60a7U,
  0xbe20e29f3d985ff4U, 0x3dd01e16bd3becbaU, 0x3da4687dbe000bc7U, 0xbe07119e3c8f0562U,
  0xbd8d347c3d3aa523U, 0xbe5317803db8a395U, 0x3d8959813e257bbdU, 0xbe7437d63e0ee939U,
  0x3da39885bd83d1d9U, 0xbce3ac243de1ccaaU, 0xbd66c97fbe27ecf4U, 0xbe3bb7d8bdfa323fU,
  0x3dac41d43be31d95U, 0x3d7f29083e8b1a3aU, 0x3d9fba463e13fbc2U, 0xbe0c3a023d048873U,
  0x3d4d0b46bdfada60U, 0xbc266552bca0fd95U, 0xbc7ef78e3d81498dU, 0xbd3af2db3d868cb8U,
  0x3d45f51f3d4feee7U, 0xbea7ca693e275983U, 0x3e20dd823db56a87U, 0xba05ff42bde3cc25U,
  0x3a0a552abbfc6252U, 0x3e7fdcf03e026b56U, 0x3e2193053ddf87b1U, 0xbe0d985c3dd301ceU,
  0x3cf29469bda667c3U, 0x3cac49533d916b94U, 0x3df4ec3a3e6f83a3U, 0xbd394da1bd342d77U,
  0xbbeb3349bc3fd944U, 0x3d88e0333da88f8fU, 0x3d0cae79bd0e3506U, 0x3d8061843db6b679U,
  0xbdbdb8a93c3b8e2eU, 0xbdaf3a953e0dc9d4U, 0x3d8f288cbd750a0bU, 0xbe4850163e07ab68U,
  0x3da1bfcc3c8680d3U, 0xbd3e7da73dd048efU, 0xbd987176be22aa27U, 0xbe370d27bd9a06e2U,
  0x3ddd6da9bdbaed48U, 0x3b0af0283e03bcbdU, 0xbb4b640c3dc32608U, 0xbc9000f83df38d43U,
  0xbe0865aebcfa5d7eU, 0xbd75ca23be56c0bdU, 0xbce06d203e1baae6U, 0xbd8f8e0d3e40be1dU,
  0xbcb25acebd93fd6eU, 0xbea13715bd3f522dU, 0x3cf441f6bcab4d35U, 0x3da381623d6315cbU,
  0xbd747ac23cc80c18U, 0x3de48151bc58ea66U, 0x3e0d6b673ddcf26fU, 0xbe0ceae9bde2506cU,
  0xbe346e96bdcc40f8U, 0xbe24b70ebdcbde3bU, 0x3c9128fb3d3e7d59U, 0xbe64651fbd62d222U,
  0x3e1824833dde7021U, 0xbd73cc543c2e2dbeU, 0x3d280ba63e36b840U, 0x3e0b906abd65e082U,
  0x3b3b7c02bdc3557eU, 0xbcbe417d3d5d4e05U, 0xbe20e3eebe39c94cU, 0x3e2cc09fbe2e9ef7U,
  0xbdfd1da93da1c9dcU, 0xbd1c8ae8be8aa70bU, 0xbda02614bb83bd61U, 0x3df81259bdc7e0b6U,
  0x3d1f77933dbf89c5U, 0xbe60e27cbe963bd0U, 0x3d4109a4bded45e2U, 0x3dd4d34cbe2f4cf4U,
  0x3c6c72c53d2c0cd7U, 0x3dca95923daa1bbcU, 0x3d53abe2bdfe3de5U, 0xbd948676be52862bU,
  0x3e35648dbdaf867dU, 0x3deabe38bea11e2cU, 0x3dc2e602bde83486U, 0xbe88c2db3b91e16dU,
  0x3d93d0ba3d22c823U, 0xbe59536b3d4c583cU, 0xbd3efa1b3d121b40U, 0x3caa884ebbd83e8eU,
  0xbd779bf83d6fc888U, 0x3c39c933bcfd59dcU, 0xbcc9abb53e1b2390U, 0x3c6e4502bd566d01U,
  0x3dcd722abd7604baU, 0xbc5f4bfc3d2eb79fU, 0x3b950ad1bd8680f3U, 0x3d2289e63e024590U,
  0xbd0876e13d00769fU, 0xbd17b6b8be13a394U, 0x3e122613bca5b5f4U, 0xbc4922683cd50f29U,
  0x3c663b2e3cc7a346U, 0xbdf6bb69bde978c1U, 0x3d81b5ab3d4fb69bU, 0xbca99fd53e0496f7U,
  0x3dea3bc1bdaffd18U, 0xbb8823173df4cc43U, 0x3dd0579ebbd98edaU, 0x3db7726ebda3cb4aU,
  0x3dda303b3ba86b74U, 0x3dad703f3c59fa5eU, 0xbd836be73db05d1bU, 0xbd56977e3df6a473U,
  0x3dfed16bbd07384bU, 0xbde3d770bd4f817eU, 0xbd464930bdb6b1d0U, 0x3cc7692b3d06f5b2U,
  0xbd147f793db68590U, 0xbcc49e203dd2ed87U, 0x3d222448bbdfc47eU, 0x3ddb4bf8be2c18ffU,
  0xbc9fe5893c54dc68U, 0x3d81c5c83e2d32e6U, 0x3dd3fc393e66f2deU, 0x3df28efbbcaf4450U,
  0xbaa8104dba4f6bc4U, 0xbd992e103d7f831aU, 0x3dddf52dbe05be0dU, 0x3d70c295bdbc47d2U,
  0xbddc31893dc911f0U, 0xbd8993953d02c3aeU, 0x3d28cd053de53cd4U, 0xbe65dacf3e1267e5U,
  0x3dbc766b3d932c04U, 0xbd8bd991bd3ab076U, 0x3c39feb5be13245fU, 0xbe6cdcd13c0b404fU,
  0xbca4505e3dd19a4bU, 0x3e2f48c03d344d87U, 0x3d7563643d150ca7U, 0xbdc197d03d81f744U,
  0x3dce46d8bcb90af6U, 0xbd0bb7a8be34c3a2U, 0x3d7810643e0d5d5aU, 0x3d7bf7cb3e03e53fU,
  0x3e055925bdb445beU, 0xbe67b17d3df2c837U, 0x3ca7a348bcc029d9U, 0xbd4ca43d3deedd40U,
  0xbe1772c03d817e4eU, 0x3e8eb2ae3d58aeb2U, 0x3bcc5d433d811cb9U, 0x3dc046bd3cb927a4U,
  0x3d9888d03dcf2793U, 0x3e15a5b8bd24a756U, 0x3d8980c2bcfb0274U, 0x3d95d8cabdad1b0cU,
  0xbdf2fe82be2f2014U, 0xbe145b5abdad53b7U, 0x3dd58ea1bda79adcU, 0x3d119d4c3e2154c8U,
  0x3c28c993bd335e73U, 0xbc10ebdcbdb83c4eU, 0x3e57637c3de18872U, 0x3d53f42e3d60fb86U,
  0x3dfbfbcd3ddcf97bU, 0xbdf12d7c3dd754dfU, 0xbdc42871be0a6815U, 0xbe2a41a83d3dd3b0U,
  0x3d459ea4bdc6074bU, 0x3d1efe143e830363U, 0xbd1b7c183e3d1f9dU, 0xbd6a5e533d6e7566U,
  0x3d7ee09ebe0215cbU, 0xbe3384e8bd4d554aU, 0xbd96d1073dbe1d3bU, 0x3d9e6877bcebf0b2U,
  0xbd96b8b33d7c6e9fU, 0xbdc1654e3d1ed686U, 0x3d983398bd511395U, 0x3e61aaea3cc71eabU,
  0x3c88b5fc3d3a6423U, 0xbd816965bcccd965U, 0x3af386a93c8aed71U, 0x3d7918bcbdfa3361U,
  0x3e3268b5bc5d95cdU, 0x3c0123b23ddfd656U, 0x3da3943fbdf37804U, 0x3e28a5fbbc9eaaa6U,
  0xbc31d9d2be12b566U, 0xbcd70fa8be142447U, 0xbdab78ecbe23d5c0U, 0x3dc013ae3d1cde4aU,
  0xbc7e1bb63c293995U, 0xbd05481d3e0249a6U, 0x3e064132bc39b41cU, 0x3d9190a43e08c3f1U,
  0x3e022d2c3dd0739cU, 0x3d1126273d225865U, 0x3b183cfebd859b76U, 0xbdcfccb63dde5fa8U,
  0xbdab8d193cffbd0aU, 0x3c9f6c8d3dc2be9cU, 0xbb03cb313bf220c0U, 0x3da2aab2baa688beU,
  0x3db7a3d5bd9e041aU, 0xbe09e2dabd33e9cbU, 0xbd5420763de69a46U, 0x3d18d6abbd22c1bbU,
  0xbc7e205e3cfab2f2U, 0xbd4610e93d84c32eU, 0x3d39b50e3da88992U, 0x3e02ccbb3e057f03U,
  0xbb5fb1eabd379846U, 0xbd8cdc93bcd85c3cU, 0x3d185579bdb1f162U, 0x3cd885803cbeda86U,
  0xbd1cdaa83e0d74a1U, 0x3cf4ce443e14d336U, 0x3d908b8bbe0341c2U, 0x3ba6932bbdf7d776U,
  0xbd38419fbbcbe0b1U, 0xbde72efc3c716713U, 0x3dba5df93d564166U, 0xbdad32e53e000d3eU,
  0x3d7ad4b63c93e2d9U, 0xbe092b213e005616U, 0xbcdb7049bd1bf21fU, 0xbdfb36483da5b5dfU,
  0xbd74203d3c261e5eU, 0xbdd2cf463e00abf4U, 0xbdcff4773db00669U, 0xbc714e6ebd4327aaU,
  0x3c20b9c9be2fcbb4U, 0x3c522d833d9d73ebU, 0xbd8083243e32bb53U, 0xbd95f7c83dd97248U,
  0x3e0d73deba2edbebU, 0xbe25294b3dc17d5dU, 0xbd93c047bdefe982U, 0x3dd23fff3d765648U,
  0x3d3664ba3e0a823bU, 0xbe01cac13e6c4620U, 0xbd00a824bd89033cU, 0x3d3d3d393e09f049U,
  0x3d07fde13db44314U, 0x3dc9bec03d8deb66U, 0x3e67000a3ddee0b2U, 0xbdbce7f6bd9daf88U,
  0x3e2b61b03d9d442bU, 0x3ad692bc3dbd61c6U, 0xbcf977413e18d8f5U, 0xbdcd87413d33a848U,
  0xbd1c98423d98ccbdU, 0xbcf7c2c1bda610edU, 0xbdeef220be09b297U, 0xbd3a221a3c8edd2fU,
  0x3af15096bd2c2821U, 0xbd20b2853cc2f472U, 0x3dcdcc4fbd7072a4U, 0xbe661d9a3d7894d5U,
  0xbc14918a3e24bffeU, 0x3d5534963dfae6a1U, 0x3d8ac927bd27051eU, 0xbe6b00a0bdfa3d64U,
  0xbdbd475bbdefa7bfU, 0x3e4479bf3e103b09U, 0xbd8b8d9abd0ca8d3U, 0xbcab97c6bd8c0467U,
  0xbdc1b0a4be16a984U, 0x3d52edc2be29303dU, 0x3ca25a953d7f59f8U, 0x3e0081853e8da5c9U,
  0x3d7a26173e0cecd8U, 0xbe04c5813d26f102U, 0x3e2377693dcfb206U, 0xbc0177c83dd1fbd7U,
  0xbca891323e0eb346U, 0x3ebaf89e3e0b826dU, 0x3e0703503e1752e3U, 0xbdb7f8143dc28badU,
  0xbdaf1589bb8a1d15U, 0x3d8ed48fbda55c0dU, 0xbbff6b1e3d9597daU, 0xbe1eb31ebdba892cU,
  0x3dc59705bcfcce66U, 0x3d9e9a2abcada687U, 0x3cfac4743db14b83U, 0xbde5e2583c2157b2U,
  0xbda19b603d9a23abU, 0x3d4317c8bda26336U, 0xbd6b50793b32792eU, 0xbe13b1cc3d611c5cU,
  0x3de2fed13dad6189U, 0xbe4c2e0cbdae16adU, 0x3d98c9bbbd96131bU, 0xbe2003ce3d1fd309U,
  0xbd110a243dec6cf6U, 0x3d5e10f0bda9f345U, 0xbda1780e3d63c77aU, 0xbcc7d088bdada731U,
  0x3ba4e570bda41c82U, 0xbb7b24a1bd46bcfeU, 0x3dce5389bddfb04eU, 0xbd2209883e0ef7fbU,
  0x3e0e56643c5d1c68U, 0x3c80098abe52c58dU, 0x3d3647193c827fe6U, 0xbd8995233d916038U,
  0xbe7222a5bc0d089cU, 0xbce89468be04546eU, 0xbe277f6a3d44f5daU, 0xbdaef224bdfb801cU,
  0x3d5760c73de44412U, 0xbdab28c83dd98a06U, 0x3d9a3983bd0020a8U, 0x3d9be335bd635a4aU,
  0x3dcde460be0efd4dU, 0xbdef70f9be394f06U, 0xbdb11ef1bbe64991U, 0x3d6ef237bd830a66U,
  0x3db6d72e3db1378eU, 0xbcf254523a80884bU, 0x3e091908bdcc2944U, 0xbe0f03eebd8cff30U,
  0x3c61a2313e26768dU, 0xbe2eb3933cbe55cdU, 0xbde5144c3dd6f795U, 0x3abf46bd3db390c6U,
  0x3da96e9fbaea29b4U, 0xbdb2ff64bcc1f739U, 0xbde8cc333cf59850U, 0xbd84a2afbd20b4eaU,
  0xbc517b16bdb253f6U, 0xbe473057bdcfd1fcU, 0xbdb3318cbd8ce808U, 0xbe0a3251bd8542d7U,
  0x3da2433bbd364997U, 0xbe334dcd3d640483U, 0xbd926b76bdaf0477U, 0xbdbd44ac3e07fd96U,
  0xbda171f1bacde8ecU, 0x3d193abcbda11fefU, 0x3d011b713e44f3a7U, 0xbd56995bbe445f53U,
  0x3d5a75263c3dcbf0U, 0x3dbbcbffbc168d42U, 0xbdc71ca93de14946U, 0xbe0076ac3d101f89U,
  0xbe0fba83bb97d9daU, 0xbb939c94bcf11573U, 0xbd3dedb2be103051U, 0xbda92b72bc414c63U,
  0x3d9278603d37cd81U, 0xbe3df49a3d8b5d17U, 0x3bd744fc3b5b4b79U, 0xbe5539cd3d6ece74U,
  0x3c27f453bd851703U, 0xbd825d863d668cd9U, 0xbd0fe108bd814053U, 0xbe37531dbe113d9aU,
  0x3c470295bb00389dU, 0x3dd7c6893de04de9U, 0xbd0816d43d9b88d7U, 0x3db0ef80bd96a1adU,
  0x3d535ba13da3bd6fU, 0x3c64e4c7bb834c06U, 0x3e323e653e1fe5f7U, 0xbdbe40c93d16d561U,
  0x3e02b6d9bd253efbU, 0xbe290b7f3deb7ee9U, 0xbb886bc4bd8d8733U, 0x3dd6bed83d480677U,
  0xbdecf2b33d6af702U, 0x3e97b7a13e09b96eU, 0xbd82b548bd05e842U, 0xbdeba2a63d98767aU,
  0xbe248ad63e4d3400U, 0xbda7f101b9b01ac6U, 0x3dcb3992bcb581edU, 0xbe29299cbe36d6d2U,
  0xbd81bcdebd07945eU, 0xbe27e9fcbe88dd82U, 0xbd9235f9bcf424d1U, 0xbe64f0113d9e9be9U,
  0x3e19cd783d22d9b5U, 0xbe36edbc3cf801f3U, 0xbd52a22abe153b17U, 0xbd878b253b5f069bU,
  0x3d7bdf263e197ae1U, 0xbe2c1bd3be55120dU, 0xbcfee577bdaf8c09U, 0xbd83fb2c3e0d2c23U,
  0xbd86edcebd6797e6U, 0xbcfdbffdbdca979eU, 0xbc97756cbe1307fdU, 0x3cb28cd4be30498bU,
  0xbd47eb7cbe54ebdeU, 0xbe768598bda19ea9U, 0x3d14958ebd32e2a9U, 0x3d01774a3d87ca78U,
  0x3e39b549bd2ca254U, 0xbe276e11be591c56U, 0x3c81282f3e19aeeeU, 0xbe50e3afbd7feeb0U,
  0xbe90e6113b3cbdc0U, 0x3d031afabe0c58edU, 0xbe69c9a73e6699d2U, 0xbdf252b3beab4a26U,
  0x3bcf859abd800401U, 0x3db1e271bcc0d8b8U, 0x3c89e599bd7bb7ffU, 0x3b9cc11c3d1ccbacU,
  0x3de6b7d8bd58cfc3U, 0x3dde89e3be2720c6U, 0x3d1784063c92bbedU, 0x3c7762be3dde663aU,
  0xbcd0bc4a3afd5148U, 0x3d5b32b3bdfee729U, 0x3daa3bd43d8fd239U, 0xbe059079bcc771c2U,
  0x3d9bf3cd3d585dc7U, 0x3d11278bbe139cbdU, 0x3c75e8f2bca552fcU, 0xbcc2ae3b3dfed896U,
  0x3d5f0b85bd87fa7cU, 0x3d9762963d81846bU, 0x3bbe8d5ebd8c0aa6U, 0x3c29845bbdfef49fU,
  0x3dd25813bdc9a905U, 0xbe2a61253da80020U, 0xbd55a375bd868fe8U, 0x3da17e47bcf3266cU,
  0x3d262c1ebd9a5362U, 0xbd6205efbe0d1c55U, 0xbd70dc21bd92ca53U, 0x399c971f3e079df5U,
  0x3c1b27f53d84c72cU, 0x3ddb1eb53c8bfafcU, 0x3bf342f5bce5ce51U, 0x3ab454c1be1f5d0eU,
  0xbd6f19e9bda79a08U, 0xbd61157bbe032f9bU, 0xbdc4582cbe53a366U, 0xbdd0890bbd2fb09eU,
  0x3d5f22723ddecd1bU, 0xbe33dda2bdf6d09dU, 0x3d2a714dbd3b0e55U, 0xbc55fa083dfe05cfU,
  0xbd5870d63c2d0128U, 0x3d0da137bdb28e44U, 0xbd73a5f8bdeda234U, 0x3e177a513c1a08f7U,
  0xbd4b15e2be0943d7U, 0x3d1b63c03d4f5f48U, 0xbd9d86da3da77bbcU, 0x3bcdfed03e1699ddU,
  0x3d6a6429bcfb41eeU, 0xbdf68a64bd5bb50fU, 0x3db03053bdf0a656U, 0x3dcfa1893d1f8405U,
  0xbda01ac83d088dc3U, 0x3dee08273d04a3dbU, 0xbdff2b66bdfb25e7U, 0xbda13924bd7669ceU,
  0xbde7170d3ba3cb68U, 0x3ddf7afa3d92512cU, 0xbe2beef4bdd758beU, 0x3c51069a3d58445cU,
  0x3d153f163ce9fb9cU, 0xbe4eb04abd8868feU, 0x3d9a2a82bdcc7957U, 0x3cbb27a33dd4e7c4U,
  0x3dbe8b66bd61e603U, 0x3db5f8dd3e099f00U, 0x3d4894433dd61611U, 0xbd5efe69bba85b20U,
  0xbce7834dbe147432U, 0x3dab92bc3cae652fU, 0x3d3986cd3c48f707U, 0xbcd38a9c3d9e7c07U,
  0x3c1211343db9c142U, 0xbdb61e99bc9fce54U, 0xbd40dd95bda8baf9U, 0x3d86a5e33d2c3acbU,
  0x3d536c0d3d64a657U, 0xbdcc85c1bda612c2U, 0x3ce291afbd8ace64U, 0xbe32edd33b8c4656U,
  0xbccdc83b3cd32dd3U, 0x3e0d47133c4b9fecU, 0x3dd8c82cbd5b1c4fU, 0x3df1bfd9bdce2827U,
  0x3d7f8ca53cc7476cU, 0xbda64336bdd52024U, 0xbd88a3e4bd8aaebfU, 0x3e01a5b53e43ccc0U,
  0x3cb89a053d84550bU, 0xbdda987d3c7adce6U, 0xbd2dd446bda1af80U, 0xbd9cbc413d3db225U,
  0xbe0566b5bc2d21e8U, 0x3da600423d82d0aaU, 0x3d7f992c3c3974dfU, 0x3dd3aad73db82a5cU,
  0x3d94dc033d798ae3U, 0x3e122f7e3de84e55U, 0x3cbc14dd3cc6817aU, 0x3d5432943bcccbbcU,
  0x3bb35fcf3d867683U, 0xbda9d445bdfb8e1fU, 0xbc1f3c42be18edceU, 0xbd927c243d181899U,
  0xbd933f54be00c185U, 0xbce809853d574ad2U, 0x3d5082963ccec4e1U, 0xbd87aa513bb68314U,
  0xbcde97f1bd6cc829U, 0xbd98d484bd2d25e1U, 0x3d8a3aa1bd285219U, 0x3d03351e3e0b0db0U,
  0x3ce9bfbd3d5deabfU, 0xbd3bec59bd0730ddU, 0xbddb33ea3c9c1047U, 0x3b950f5f3d8df715U,
  0xbc8c4caebdf65b24U, 0x3dd09d75bdc28233U, 0xbd74ec963d8aeeaaU, 0xbd7104533dc826d3U,
  0xbdae038d3e0e2cfbU, 0x3e022ae83e094ddcU, 0x3c8cd2cd3d91f2a7U, 0x3dd03f383bbb2c39U,
  0x3c954a683db6f38dU, 0xbd272560bd2f72ddU, 0x3c960872bdc2b1e2U, 0x3d9f7baf3beef267U,
  0xbd9374743c492e34U, 0xbd4a80f63d1473acU, 0xbcba7ac9bd949abcU, 0xbcccdcf03dc155d2U,
  0xbc967465bd2d65acU, 0xbdaffc0e3c172b50U, 0xbd6a32173dab5b52U, 0xbdbd39573c291536U,
  0xbce0d756bd53e26cU, 0x3dc67530bd9daec0U, 0xbd54d017bdeb18ebU, 0xbc8e5546bd2b3052U,
  0x3d979a043d44c7ccU, 0x3d7bce7f3d7fd501U, 0xbd1492f13de36e5fU, 0x3e644711bdabd1fcU,
  0x3c9c2447bd203bf8U, 0x3d48e74dbd37db35U, 0xbda8f7533df8b751U, 0xbdc445ee3cc0c80bU,
  0x3dd553213dbca77aU, 0x3d5135273c673772U, 0xbd8eb665bd86cc06U, 0xbdfe1b1fbc1bba9aU,
  0xbda6177bbd29d3c7U, 0x3e081fe0bdb6b30cU, 0xbe18fc543da90578U, 0x3ca6813b3d22f2b1U,
  0xbd428cf93db34beeU, 0xbe4851c03dc02d49U, 0xbd9541c93d3432eeU, 0x3d47e6343cf7b1aeU,
  0x3e22aef93dc2aa29U, 0x3c95c1503e462aefU, 0x3c44664e3dad3dd2U, 0x3e23ebea3dad9906U,
  0x3cfaaf72be02ccbeU, 0x3ab0e8fd3d4929bcU, 0xbbdf8afcbd860f1cU, 0xbdf0c1613d2ba48bU,
  0x3df544973c4f9cb3U, 0xbe6f2d423e14a8a9U, 0x3e73bbef3d944e06U, 0xbe74349c3d21af27U,
  0x3e32ee593deaf8a8U, 0xbe0586ff3e3ab6bbU, 0x3d80dfe2be618331U, 0xbe2f827cbd2768deU,
  0xbd698d383d67584aU, 0x3e38e5c13e531737U, 0x3dbfc31e3d0a8996U, 0xbd7b0ca83d43ef01U,
  0x3de0f120be35b6d5U, 0xbc8616cabe94dd13U, 0x3ccef7623cf11ecbU, 0x3e22dad23e82ae57U,
  0xbd500723bc8fad9dU, 0xbec145353e3b64bfU, 0x3e03ab65bc09e150U, 0x3e2d4a9fbd1057c6U,
  0x3d7677f5bc788417U, 0x3e9ab85e3e16ab7eU, 0x3e1ad5f3bc5e9e5eU, 0xbd2c3aec3d1a2f5aU,
  0xbdc703603d393325U, 0xbd2527ceb992f1edU, 0xbd3725d8bda09095U, 0x3cc0594dbce0e382U,
  0x3da695443e0aba8cU, 0x3d8dc88abd45d153U, 0xbd190b8c3dbfd41fU, 0xbd7d9268bd8a7066U,
  0xbd94e8a6bdc81dd9U, 0x3d823d5ebda8cdd8U, 0xbe4e5822bdc5bd56U, 0x3d3ff8cdbdcf11c1U,
  0xbe2b133f3c8431a1U, 0x3e06f94abde22cdfU, 0xbd9e1350bdba3aeeU, 0xbe449ed83dc32282U,
  0x3e6fe26f3e6e7dfdU, 0xbe82660e3e809dc7U, 0x3d2e099d3e4a935fU, 0x3e8e4b2d3e725267U,
  0xbdc9afa6bd0b137eU, 0x3e0561c9bde1d04fU, 0x3e45b2c8be046ee9U, 0x3e6bf3693e19fe4fU,
  0x3e818f303e189fb8U, 0xbdcb7bbebe3ba4a5U, 0x3e543b46be22901cU, 0x3dc84db03e115292U,
  0x3e58c38d3e07531eU, 0xbe1af00e3db00245U, 0xbde440a83e253db3U, 0x3e510ee1be2abb22U,
  0x3dc7883eU,
};


ai_handle g_network_weights_table[1 + 2] = {
  AI_HANDLE_PTR(AI_MAGIC_MARKER),
  AI_HANDLE_PTR(s_network_weights_array_u64),
  AI_HANDLE_PTR(AI_MAGIC_MARKER),
};

